{
  "version": "1.0",
  "truncation": null,
  "padding": null,
  "added_tokens": [
    {
      "id": 0,
      "content": "<pad>",
      "single_word": false,
      "lstrip": false,
      "rstrip": false,
      "normalized": false,
      "special": true
    },
    {
      "id": 1,
      "content": "<s>",
      "single_word": false,
      "lstrip": false,
      "rstrip": false,
      "normalized": false,
      "special": true
    },
    {
      "id": 2,
      "content": "</s>",
      "single_word": false,
      "lstrip": false,
      "rstrip": false,
      "normalized": false,
      "special": true
    },
    {
      "id": 3,
      "content": "<unk>",
      "single_word": false,
      "lstrip": false,
      "rstrip": false,
      "normalized": false,
      "special": true
    },
    {
      "id": 4,
      "content": "<unused_0>",
      "single_word": false,
      "lstrip": false,
      "rstrip": false,
      "normalized": false,
      "special": true
    },
    {
      "id": 5,
      "content": "<unused_1>",
      "single_word": false,
      "lstrip": false,
      "rstrip": false,
      "normalized": false,
      "special": true
    },
    {
      "id": 6,
      "content": "<unused_2>",
      "single_word": false,
      "lstrip": false,
      "rstrip": false,
      "normalized": false,
      "special": true
    },
    {
      "id": 7,
      "content": "<unused_3>",
      "single_word": false,
      "lstrip": false,
      "rstrip": false,
      "normalized": false,
      "special": true
    },
    {
      "id": 8,
      "content": "<unused_4>",
      "single_word": false,
      "lstrip": false,
      "rstrip": false,
      "normalized": false,
      "special": true
    },
    {
      "id": 9,
      "content": "<unused_5>",
      "single_word": false,
      "lstrip": false,
      "rstrip": false,
      "normalized": false,
      "special": true
    },
    {
      "id": 10,
      "content": "<unused_6>",
      "single_word": false,
      "lstrip": false,
      "rstrip": false,
      "normalized": false,
      "special": true
    },
    {
      "id": 11,
      "content": "<unused_7>",
      "single_word": false,
      "lstrip": false,
      "rstrip": false,
      "normalized": false,
      "special": true
    },
    {
      "id": 12,
      "content": "<unused_8>",
      "single_word": false,
      "lstrip": false,
      "rstrip": false,
      "normalized": false,
      "special": true
    },
    {
      "id": 13,
      "content": "<unused_9>",
      "single_word": false,
      "lstrip": false,
      "rstrip": false,
      "normalized": false,
      "special": true
    },
    {
      "id": 14,
      "content": "<unused_10>",
      "single_word": false,
      "lstrip": false,
      "rstrip": false,
      "normalized": false,
      "special": true
    },
    {
      "id": 15,
      "content": "<unused_11>",
      "single_word": false,
      "lstrip": false,
      "rstrip": false,
      "normalized": false,
      "special": true
    },
    {
      "id": 16,
      "content": "<unused_12>",
      "single_word": false,
      "lstrip": false,
      "rstrip": false,
      "normalized": false,
      "special": true
    },
    {
      "id": 17,
      "content": "<unused_13>",
      "single_word": false,
      "lstrip": false,
      "rstrip": false,
      "normalized": false,
      "special": true
    },
    {
      "id": 18,
      "content": "<unused_14>",
      "single_word": false,
      "lstrip": false,
      "rstrip": false,
      "normalized": false,
      "special": true
    },
    {
      "id": 19,
      "content": "<unused_15>",
      "single_word": false,
      "lstrip": false,
      "rstrip": false,
      "normalized": false,
      "special": true
    },
    {
      "id": 20,
      "content": "<unused_16>",
      "single_word": false,
      "lstrip": false,
      "rstrip": false,
      "normalized": false,
      "special": true
    },
    {
      "id": 21,
      "content": "<unused_17>",
      "single_word": false,
      "lstrip": false,
      "rstrip": false,
      "normalized": false,
      "special": true
    },
    {
      "id": 22,
      "content": "<unused_18>",
      "single_word": false,
      "lstrip": false,
      "rstrip": false,
      "normalized": false,
      "special": true
    },
    {
      "id": 23,
      "content": "<unused_19>",
      "single_word": false,
      "lstrip": false,
      "rstrip": false,
      "normalized": false,
      "special": true
    },
    {
      "id": 24,
      "content": "<unused_20>",
      "single_word": false,
      "lstrip": false,
      "rstrip": false,
      "normalized": false,
      "special": true
    },
    {
      "id": 25,
      "content": "<unused_21>",
      "single_word": false,
      "lstrip": false,
      "rstrip": false,
      "normalized": false,
      "special": true
    },
    {
      "id": 26,
      "content": "<unused_22>",
      "single_word": false,
      "lstrip": false,
      "rstrip": false,
      "normalized": false,
      "special": true
    },
    {
      "id": 27,
      "content": "<unused_23>",
      "single_word": false,
      "lstrip": false,
      "rstrip": false,
      "normalized": false,
      "special": true
    },
    {
      "id": 28,
      "content": "<unused_24>",
      "single_word": false,
      "lstrip": false,
      "rstrip": false,
      "normalized": false,
      "special": true
    },
    {
      "id": 29,
      "content": "<unused_25>",
      "single_word": false,
      "lstrip": false,
      "rstrip": false,
      "normalized": false,
      "special": true
    },
    {
      "id": 30,
      "content": "<unused_26>",
      "single_word": false,
      "lstrip": false,
      "rstrip": false,
      "normalized": false,
      "special": true
    },
    {
      "id": 31,
      "content": "<unused_27>",
      "single_word": false,
      "lstrip": false,
      "rstrip": false,
      "normalized": false,
      "special": true
    },
    {
      "id": 32,
      "content": "<unused_28>",
      "single_word": false,
      "lstrip": false,
      "rstrip": false,
      "normalized": false,
      "special": true
    },
    {
      "id": 33,
      "content": "<unused_29>",
      "single_word": false,
      "lstrip": false,
      "rstrip": false,
      "normalized": false,
      "special": true
    },
    {
      "id": 34,
      "content": "<unused_30>",
      "single_word": false,
      "lstrip": false,
      "rstrip": false,
      "normalized": false,
      "special": true
    },
    {
      "id": 35,
      "content": "<unused_31>",
      "single_word": false,
      "lstrip": false,
      "rstrip": false,
      "normalized": false,
      "special": true
    },
    {
      "id": 36,
      "content": "<unused_32>",
      "single_word": false,
      "lstrip": false,
      "rstrip": false,
      "normalized": false,
      "special": true
    },
    {
      "id": 37,
      "content": "<unused_33>",
      "single_word": false,
      "lstrip": false,
      "rstrip": false,
      "normalized": false,
      "special": true
    },
    {
      "id": 38,
      "content": "<unused_34>",
      "single_word": false,
      "lstrip": false,
      "rstrip": false,
      "normalized": false,
      "special": true
    },
    {
      "id": 39,
      "content": "<unused_35>",
      "single_word": false,
      "lstrip": false,
      "rstrip": false,
      "normalized": false,
      "special": true
    },
    {
      "id": 40,
      "content": "<unused_36>",
      "single_word": false,
      "lstrip": false,
      "rstrip": false,
      "normalized": false,
      "special": true
    },
    {
      "id": 41,
      "content": "<unused_37>",
      "single_word": false,
      "lstrip": false,
      "rstrip": false,
      "normalized": false,
      "special": true
    },
    {
      "id": 42,
      "content": "<unused_38>",
      "single_word": false,
      "lstrip": false,
      "rstrip": false,
      "normalized": false,
      "special": true
    },
    {
      "id": 43,
      "content": "<unused_39>",
      "single_word": false,
      "lstrip": false,
      "rstrip": false,
      "normalized": false,
      "special": true
    },
    {
      "id": 44,
      "content": "<unused_40>",
      "single_word": false,
      "lstrip": false,
      "rstrip": false,
      "normalized": false,
      "special": true
    },
    {
      "id": 45,
      "content": "<unused_41>",
      "single_word": false,
      "lstrip": false,
      "rstrip": false,
      "normalized": false,
      "special": true
    },
    {
      "id": 46,
      "content": "<unused_42>",
      "single_word": false,
      "lstrip": false,
      "rstrip": false,
      "normalized": false,
      "special": true
    },
    {
      "id": 47,
      "content": "<unused_43>",
      "single_word": false,
      "lstrip": false,
      "rstrip": false,
      "normalized": false,
      "special": true
    },
    {
      "id": 48,
      "content": "<unused_44>",
      "single_word": false,
      "lstrip": false,
      "rstrip": false,
      "normalized": false,
      "special": true
    },
    {
      "id": 49,
      "content": "<unused_45>",
      "single_word": false,
      "lstrip": false,
      "rstrip": false,
      "normalized": false,
      "special": true
    },
    {
      "id": 50,
      "content": "<unused_46>",
      "single_word": false,
      "lstrip": false,
      "rstrip": false,
      "normalized": false,
      "special": true
    },
    {
      "id": 51,
      "content": "<unused_47>",
      "single_word": false,
      "lstrip": false,
      "rstrip": false,
      "normalized": false,
      "special": true
    },
    {
      "id": 52,
      "content": "<unused_48>",
      "single_word": false,
      "lstrip": false,
      "rstrip": false,
      "normalized": false,
      "special": true
    },
    {
      "id": 53,
      "content": "<unused_49>",
      "single_word": false,
      "lstrip": false,
      "rstrip": false,
      "normalized": false,
      "special": true
    },
    {
      "id": 54,
      "content": "<unused_50>",
      "single_word": false,
      "lstrip": false,
      "rstrip": false,
      "normalized": false,
      "special": true
    },
    {
      "id": 55,
      "content": "<unused_51>",
      "single_word": false,
      "lstrip": false,
      "rstrip": false,
      "normalized": false,
      "special": true
    },
    {
      "id": 56,
      "content": "<unused_52>",
      "single_word": false,
      "lstrip": false,
      "rstrip": false,
      "normalized": false,
      "special": true
    },
    {
      "id": 57,
      "content": "<unused_53>",
      "single_word": false,
      "lstrip": false,
      "rstrip": false,
      "normalized": false,
      "special": true
    },
    {
      "id": 58,
      "content": "<unused_54>",
      "single_word": false,
      "lstrip": false,
      "rstrip": false,
      "normalized": false,
      "special": true
    },
    {
      "id": 59,
      "content": "<unused_55>",
      "single_word": false,
      "lstrip": false,
      "rstrip": false,
      "normalized": false,
      "special": true
    },
    {
      "id": 60,
      "content": "<unused_56>",
      "single_word": false,
      "lstrip": false,
      "rstrip": false,
      "normalized": false,
      "special": true
    },
    {
      "id": 61,
      "content": "<unused_57>",
      "single_word": false,
      "lstrip": false,
      "rstrip": false,
      "normalized": false,
      "special": true
    },
    {
      "id": 62,
      "content": "<unused_58>",
      "single_word": false,
      "lstrip": false,
      "rstrip": false,
      "normalized": false,
      "special": true
    },
    {
      "id": 63,
      "content": "<unused_59>",
      "single_word": false,
      "lstrip": false,
      "rstrip": false,
      "normalized": false,
      "special": true
    },
    {
      "id": 64,
      "content": "<unused_60>",
      "single_word": false,
      "lstrip": false,
      "rstrip": false,
      "normalized": false,
      "special": true
    },
    {
      "id": 65,
      "content": "<unused_61>",
      "single_word": false,
      "lstrip": false,
      "rstrip": false,
      "normalized": false,
      "special": true
    },
    {
      "id": 66,
      "content": "<unused_62>",
      "single_word": false,
      "lstrip": false,
      "rstrip": false,
      "normalized": false,
      "special": true
    },
    {
      "id": 67,
      "content": "<unused_63>",
      "single_word": false,
      "lstrip": false,
      "rstrip": false,
      "normalized": false,
      "special": true
    },
    {
      "id": 68,
      "content": "<unused_64>",
      "single_word": false,
      "lstrip": false,
      "rstrip": false,
      "normalized": false,
      "special": true
    },
    {
      "id": 69,
      "content": "<unused_65>",
      "single_word": false,
      "lstrip": false,
      "rstrip": false,
      "normalized": false,
      "special": true
    },
    {
      "id": 70,
      "content": "<unused_66>",
      "single_word": false,
      "lstrip": false,
      "rstrip": false,
      "normalized": false,
      "special": true
    },
    {
      "id": 71,
      "content": "<unused_67>",
      "single_word": false,
      "lstrip": false,
      "rstrip": false,
      "normalized": false,
      "special": true
    },
    {
      "id": 72,
      "content": "<unused_68>",
      "single_word": false,
      "lstrip": false,
      "rstrip": false,
      "normalized": false,
      "special": true
    },
    {
      "id": 73,
      "content": "<unused_69>",
      "single_word": false,
      "lstrip": false,
      "rstrip": false,
      "normalized": false,
      "special": true
    },
    {
      "id": 74,
      "content": "<unused_70>",
      "single_word": false,
      "lstrip": false,
      "rstrip": false,
      "normalized": false,
      "special": true
    },
    {
      "id": 75,
      "content": "<unused_71>",
      "single_word": false,
      "lstrip": false,
      "rstrip": false,
      "normalized": false,
      "special": true
    },
    {
      "id": 76,
      "content": "<unused_72>",
      "single_word": false,
      "lstrip": false,
      "rstrip": false,
      "normalized": false,
      "special": true
    },
    {
      "id": 77,
      "content": "<unused_73>",
      "single_word": false,
      "lstrip": false,
      "rstrip": false,
      "normalized": false,
      "special": true
    },
    {
      "id": 78,
      "content": "<unused_74>",
      "single_word": false,
      "lstrip": false,
      "rstrip": false,
      "normalized": false,
      "special": true
    },
    {
      "id": 79,
      "content": "<unused_75>",
      "single_word": false,
      "lstrip": false,
      "rstrip": false,
      "normalized": false,
      "special": true
    },
    {
      "id": 80,
      "content": "<unused_76>",
      "single_word": false,
      "lstrip": false,
      "rstrip": false,
      "normalized": false,
      "special": true
    },
    {
      "id": 81,
      "content": "<unused_77>",
      "single_word": false,
      "lstrip": false,
      "rstrip": false,
      "normalized": false,
      "special": true
    },
    {
      "id": 82,
      "content": "<unused_78>",
      "single_word": false,
      "lstrip": false,
      "rstrip": false,
      "normalized": false,
      "special": true
    },
    {
      "id": 83,
      "content": "<unused_79>",
      "single_word": false,
      "lstrip": false,
      "rstrip": false,
      "normalized": false,
      "special": true
    },
    {
      "id": 84,
      "content": "<unused_80>",
      "single_word": false,
      "lstrip": false,
      "rstrip": false,
      "normalized": false,
      "special": true
    },
    {
      "id": 85,
      "content": "<unused_81>",
      "single_word": false,
      "lstrip": false,
      "rstrip": false,
      "normalized": false,
      "special": true
    },
    {
      "id": 86,
      "content": "<unused_82>",
      "single_word": false,
      "lstrip": false,
      "rstrip": false,
      "normalized": false,
      "special": true
    },
    {
      "id": 87,
      "content": "<unused_83>",
      "single_word": false,
      "lstrip": false,
      "rstrip": false,
      "normalized": false,
      "special": true
    },
    {
      "id": 88,
      "content": "<unused_84>",
      "single_word": false,
      "lstrip": false,
      "rstrip": false,
      "normalized": false,
      "special": true
    },
    {
      "id": 89,
      "content": "<unused_85>",
      "single_word": false,
      "lstrip": false,
      "rstrip": false,
      "normalized": false,
      "special": true
    },
    {
      "id": 90,
      "content": "<unused_86>",
      "single_word": false,
      "lstrip": false,
      "rstrip": false,
      "normalized": false,
      "special": true
    },
    {
      "id": 91,
      "content": "<unused_87>",
      "single_word": false,
      "lstrip": false,
      "rstrip": false,
      "normalized": false,
      "special": true
    },
    {
      "id": 92,
      "content": "<unused_88>",
      "single_word": false,
      "lstrip": false,
      "rstrip": false,
      "normalized": false,
      "special": true
    },
    {
      "id": 93,
      "content": "<unused_89>",
      "single_word": false,
      "lstrip": false,
      "rstrip": false,
      "normalized": false,
      "special": true
    },
    {
      "id": 94,
      "content": "<unused_90>",
      "single_word": false,
      "lstrip": false,
      "rstrip": false,
      "normalized": false,
      "special": true
    },
    {
      "id": 95,
      "content": "<unused_91>",
      "single_word": false,
      "lstrip": false,
      "rstrip": false,
      "normalized": false,
      "special": true
    },
    {
      "id": 96,
      "content": "<unused_92>",
      "single_word": false,
      "lstrip": false,
      "rstrip": false,
      "normalized": false,
      "special": true
    },
    {
      "id": 97,
      "content": "<unused_93>",
      "single_word": false,
      "lstrip": false,
      "rstrip": false,
      "normalized": false,
      "special": true
    },
    {
      "id": 98,
      "content": "<unused_94>",
      "single_word": false,
      "lstrip": false,
      "rstrip": false,
      "normalized": false,
      "special": true
    },
    {
      "id": 99,
      "content": "<unused_95>",
      "single_word": false,
      "lstrip": false,
      "rstrip": false,
      "normalized": false,
      "special": true
    },
    {
      "id": 100,
      "content": "<unused_96>",
      "single_word": false,
      "lstrip": false,
      "rstrip": false,
      "normalized": false,
      "special": true
    },
    {
      "id": 101,
      "content": "<unused_97>",
      "single_word": false,
      "lstrip": false,
      "rstrip": false,
      "normalized": false,
      "special": true
    },
    {
      "id": 102,
      "content": "<unused_98>",
      "single_word": false,
      "lstrip": false,
      "rstrip": false,
      "normalized": false,
      "special": true
    },
    {
      "id": 103,
      "content": "<unused_99>",
      "single_word": false,
      "lstrip": false,
      "rstrip": false,
      "normalized": false,
      "special": true
    }
  ],
  "normalizer": null,
  "pre_tokenizer": {
    "type": "ByteLevel",
    "add_prefix_space": false,
    "trim_offsets": true,
    "use_regex": true
  },
  "post_processor": {
    "type": "ByteLevel",
    "add_prefix_space": true,
    "trim_offsets": false,
    "use_regex": true
  },
  "decoder": {
    "type": "ByteLevel",
    "add_prefix_space": true,
    "trim_offsets": true,
    "use_regex": true
  },
  "model": {
    "type": "BPE",
    "dropout": null,
    "unk_token": null,
    "continuing_subword_prefix": null,
    "end_of_word_suffix": null,
    "fuse_unk": false,
    "byte_fallback": false,
    "vocab": {
      "<pad>": 0,
      "<s>": 1,
      "</s>": 2,
      "<unk>": 3,
      "<unused_0>": 4,
      "<unused_1>": 5,
      "<unused_2>": 6,
      "<unused_3>": 7,
      "<unused_4>": 8,
      "<unused_5>": 9,
      "<unused_6>": 10,
      "<unused_7>": 11,
      "<unused_8>": 12,
      "<unused_9>": 13,
      "<unused_10>": 14,
      "<unused_11>": 15,
      "<unused_12>": 16,
      "<unused_13>": 17,
      "<unused_14>": 18,
      "<unused_15>": 19,
      "<unused_16>": 20,
      "<unused_17>": 21,
      "<unused_18>": 22,
      "<unused_19>": 23,
      "<unused_20>": 24,
      "<unused_21>": 25,
      "<unused_22>": 26,
      "<unused_23>": 27,
      "<unused_24>": 28,
      "<unused_25>": 29,
      "<unused_26>": 30,
      "<unused_27>": 31,
      "<unused_28>": 32,
      "<unused_29>": 33,
      "<unused_30>": 34,
      "<unused_31>": 35,
      "<unused_32>": 36,
      "<unused_33>": 37,
      "<unused_34>": 38,
      "<unused_35>": 39,
      "<unused_36>": 40,
      "<unused_37>": 41,
      "<unused_38>": 42,
      "<unused_39>": 43,
      "<unused_40>": 44,
      "<unused_41>": 45,
      "<unused_42>": 46,
      "<unused_43>": 47,
      "<unused_44>": 48,
      "<unused_45>": 49,
      "<unused_46>": 50,
      "<unused_47>": 51,
      "<unused_48>": 52,
      "<unused_49>": 53,
      "<unused_50>": 54,
      "<unused_51>": 55,
      "<unused_52>": 56,
      "<unused_53>": 57,
      "<unused_54>": 58,
      "<unused_55>": 59,
      "<unused_56>": 60,
      "<unused_57>": 61,
      "<unused_58>": 62,
      "<unused_59>": 63,
      "<unused_60>": 64,
      "<unused_61>": 65,
      "<unused_62>": 66,
      "<unused_63>": 67,
      "<unused_64>": 68,
      "<unused_65>": 69,
      "<unused_66>": 70,
      "<unused_67>": 71,
      "<unused_68>": 72,
      "<unused_69>": 73,
      "<unused_70>": 74,
      "<unused_71>": 75,
      "<unused_72>": 76,
      "<unused_73>": 77,
      "<unused_74>": 78,
      "<unused_75>": 79,
      "<unused_76>": 80,
      "<unused_77>": 81,
      "<unused_78>": 82,
      "<unused_79>": 83,
      "<unused_80>": 84,
      "<unused_81>": 85,
      "<unused_82>": 86,
      "<unused_83>": 87,
      "<unused_84>": 88,
      "<unused_85>": 89,
      "<unused_86>": 90,
      "<unused_87>": 91,
      "<unused_88>": 92,
      "<unused_89>": 93,
      "<unused_90>": 94,
      "<unused_91>": 95,
      "<unused_92>": 96,
      "<unused_93>": 97,
      "<unused_94>": 98,
      "<unused_95>": 99,
      "<unused_96>": 100,
      "<unused_97>": 101,
      "<unused_98>": 102,
      "<unused_99>": 103,
      "!": 104,
      "\"": 105,
      "#": 106,
      "$": 107,
      "%": 108,
      "&": 109,
      "'": 110,
      "(": 111,
      ")": 112,
      "*": 113,
      "+": 114,
      ",": 115,
      "-": 116,
      ".": 117,
      "/": 118,
      "0": 119,
      "1": 120,
      "2": 121,
      "3": 122,
      "4": 123,
      "5": 124,
      "6": 125,
      "7": 126,
      "8": 127,
      "9": 128,
      ":": 129,
      ";": 130,
      "<": 131,
      "=": 132,
      ">": 133,
      "?": 134,
      "@": 135,
      "A": 136,
      "B": 137,
      "C": 138,
      "D": 139,
      "E": 140,
      "F": 141,
      "G": 142,
      "H": 143,
      "I": 144,
      "J": 145,
      "K": 146,
      "L": 147,
      "M": 148,
      "N": 149,
      "O": 150,
      "P": 151,
      "Q": 152,
      "R": 153,
      "S": 154,
      "T": 155,
      "U": 156,
      "V": 157,
      "W": 158,
      "X": 159,
      "Y": 160,
      "Z": 161,
      "[": 162,
      "\\": 163,
      "]": 164,
      "^": 165,
      "_": 166,
      "`": 167,
      "a": 168,
      "b": 169,
      "c": 170,
      "d": 171,
      "e": 172,
      "f": 173,
      "g": 174,
      "h": 175,
      "i": 176,
      "j": 177,
      "k": 178,
      "l": 179,
      "m": 180,
      "n": 181,
      "o": 182,
      "p": 183,
      "q": 184,
      "r": 185,
      "s": 186,
      "t": 187,
      "u": 188,
      "v": 189,
      "w": 190,
      "x": 191,
      "y": 192,
      "z": 193,
      "{": 194,
      "|": 195,
      "}": 196,
      "~": 197,
      "¡": 198,
      "¢": 199,
      "£": 200,
      "¤": 201,
      "¥": 202,
      "¦": 203,
      "§": 204,
      "¨": 205,
      "©": 206,
      "ª": 207,
      "«": 208,
      "¬": 209,
      "®": 210,
      "¯": 211,
      "°": 212,
      "±": 213,
      "²": 214,
      "³": 215,
      "´": 216,
      "µ": 217,
      "¶": 218,
      "·": 219,
      "¸": 220,
      "¹": 221,
      "º": 222,
      "»": 223,
      "¼": 224,
      "½": 225,
      "¾": 226,
      "¿": 227,
      "À": 228,
      "Á": 229,
      "Â": 230,
      "Ã": 231,
      "Ä": 232,
      "Å": 233,
      "Æ": 234,
      "Ç": 235,
      "È": 236,
      "É": 237,
      "Ê": 238,
      "Ë": 239,
      "Ì": 240,
      "Í": 241,
      "Î": 242,
      "Ï": 243,
      "Ð": 244,
      "Ñ": 245,
      "Ò": 246,
      "Ó": 247,
      "Ô": 248,
      "Õ": 249,
      "Ö": 250,
      "×": 251,
      "Ø": 252,
      "Ù": 253,
      "Ú": 254,
      "Û": 255,
      "Ü": 256,
      "Ý": 257,
      "Þ": 258,
      "ß": 259,
      "à": 260,
      "á": 261,
      "â": 262,
      "ã": 263,
      "ä": 264,
      "å": 265,
      "æ": 266,
      "ç": 267,
      "è": 268,
      "é": 269,
      "ê": 270,
      "ë": 271,
      "ì": 272,
      "í": 273,
      "î": 274,
      "ï": 275,
      "ð": 276,
      "ñ": 277,
      "ò": 278,
      "ó": 279,
      "ô": 280,
      "õ": 281,
      "ö": 282,
      "÷": 283,
      "ø": 284,
      "ù": 285,
      "ú": 286,
      "û": 287,
      "ü": 288,
      "ý": 289,
      "þ": 290,
      "ÿ": 291,
      "Ā": 292,
      "ā": 293,
      "Ă": 294,
      "ă": 295,
      "Ą": 296,
      "ą": 297,
      "Ć": 298,
      "ć": 299,
      "Ĉ": 300,
      "ĉ": 301,
      "Ċ": 302,
      "ċ": 303,
      "Č": 304,
      "č": 305,
      "Ď": 306,
      "ď": 307,
      "Đ": 308,
      "đ": 309,
      "Ē": 310,
      "ē": 311,
      "Ĕ": 312,
      "ĕ": 313,
      "Ė": 314,
      "ė": 315,
      "Ę": 316,
      "ę": 317,
      "Ě": 318,
      "ě": 319,
      "Ĝ": 320,
      "ĝ": 321,
      "Ğ": 322,
      "ğ": 323,
      "Ġ": 324,
      "ġ": 325,
      "Ģ": 326,
      "ģ": 327,
      "Ĥ": 328,
      "ĥ": 329,
      "Ħ": 330,
      "ħ": 331,
      "Ĩ": 332,
      "ĩ": 333,
      "Ī": 334,
      "ī": 335,
      "Ĭ": 336,
      "ĭ": 337,
      "Į": 338,
      "į": 339,
      "İ": 340,
      "ı": 341,
      "Ĳ": 342,
      "ĳ": 343,
      "Ĵ": 344,
      "ĵ": 345,
      "Ķ": 346,
      "ķ": 347,
      "ĸ": 348,
      "Ĺ": 349,
      "ĺ": 350,
      "Ļ": 351,
      "ļ": 352,
      "Ľ": 353,
      "ľ": 354,
      "Ŀ": 355,
      "ŀ": 356,
      "Ł": 357,
      "ł": 358,
      "Ń": 359,
      "Ġì": 360,
      "ìĿ": 361,
      "Ġt": 362,
      "Ġë": 363,
      "Ġa": 364,
      "he": 365,
      "íķ": 366,
      "in": 367,
      "Ġê": 368,
      "re": 369,
      "on": 370,
      "Ġthe": 371,
      "ëĭ": 372,
      "ìĹ": 373,
      "at": 374,
      "Ġs": 375,
      "er": 376,
      "Ġo": 377,
      "Ġc": 378,
      "ëĭ¤": 379,
      "en": 380,
      "Ġí": 381,
      "ëĬ": 382,
      "ìĿ´": 383,
      "ed": 384,
      "Ġp": 385,
      "ëĬĶ": 386,
      "ìĹĲ": 387,
      "it": 388,
      "is": 389,
      "Ġw": 390,
      "an": 391,
      "ìł": 392,
      "ìĦ": 393,
      "Ġin": 394,
      "or": 395,
      "ê³": 396,
      "es": 397,
      "ìĿĺ": 398,
      "al": 399,
      "Ġof": 400,
      "ion": 401,
      "Ġan": 402,
      "Ġb": 403,
      "íķĺ": 404,
      "Ġf": 405,
      "Ġm": 406,
      "ê°": 407,
      "ing": 408,
      "ë¡": 409,
      "ìĿĦ": 410,
      "Ġìŀ": 411,
      "Ġd": 412,
      "ic": 413,
      "ro": 414,
      "Ġto": 415,
      "íķľ": 416,
      "Ġand": 417,
      "ìŀ": 418,
      "ë¡ľ": 419,
      "ë¥": 420,
      "ar": 421,
      "ì§": 422,
      "as": 423,
      "Ġìł": 424,
      "Īëĭ¤": 425,
      "ct": 426,
      "ĠìĿ": 427,
      "ent": 428,
      "ìľ": 429,
      "ou": 430,
      "ìļ": 431,
      "¸°": 432,
      "le": 433,
      "ìĭ": 434,
      "Ġre": 435,
      "Īĺ": 436,
      "ê°Ģ": 437,
      "Ġth": 438,
      "Ġë°": 439,
      "ë¥¼": 440,
      "Ġe": 441,
      "Ġê°": 442,
      "ìĿĢ": 443,
      "ê³ł": 444,
      "ìĦľ": 445,
      "ëı": 446,
      "Ĥ¬": 447,
      "ì§Ģ": 448,
      "ation": 449,
      "Ġê²": 450,
      "ë¦": 451,
      "ìķ": 452,
      "ëĲ": 453,
      "Ġh": 454,
      "Ġis": 455,
      "ve": 456,
      "ĠìĪĺ": 457,
      "om": 458,
      "ìĬ": 459,
      "ê¸°": 460,
      "Ġbe": 461,
      "us": 462,
      "ĮĢ": 463,
      "ê²": 464,
      "Ġl": 465,
      "ìľ¼": 466,
      "il": 467,
      "íķ´": 468,
      "ëĵ": 469,
      "Ġn": 470,
      "ìĸ": 471,
      "ëıĦ": 472,
      "êµ": 473,
      "ce": 474,
      "ë¦¬": 475,
      "Ġ1": 476,
      "ly": 477,
      "ĥģ": 478,
      "Ġìķ": 479,
      "Ġìĭ": 480,
      "ĠìĹ": 481,
      "id": 482,
      "ìĹĲìĦľ": 483,
      "im": 484,
      "ëł": 485,
      "ìľ¼ë¡ľ": 486,
      "Ġg": 487,
      "ë¶": 488,
      "ĠìĿ´": 489,
      "st": 490,
      "ur": 491,
      "ëĤ": 492,
      "ol": 493,
      "et": 494,
      "ìłģ": 495,
      "ĠìĦ": 496,
      "ut": 497,
      "ë³": 498,
      "ìĿ¸": 499,
      "ê³¼": 500,
      "Ġcon": 501,
      "Ġfor": 502,
      "íĸ": 503,
      "ìŀĲ": 504,
      "ay": 505,
      "The": 506,
      "Ġìľ": 507,
      "ë©": 508,
      "ë§": 509,
      "Ġë³": 510,
      "Ġì§": 511,
      "ìĦ±": 512,
      "Ġst": 513,
      "Ġthat": 514,
      "un": 515,
      "Ġpro": 516,
      "ig": 517,
      "ìĭľ": 518,
      "ë°": 519,
      "ch": 520,
      "ĠìŀĪ": 521,
      "ìĸ´": 522,
      "Ġê³": 523,
      "Ġon": 524,
      "ul": 525,
      "ot": 526,
      "ìĬ¤": 527,
      "Ġëĭ": 528,
      "ĠëĮĢ": 529,
      "ìłķ": 530,
      "ë¬": 531,
      "íĻ": 532,
      "ĠìŀĪëĭ¤": 533,
      "ìĺ": 534,
      "ĠìĤ¬": 535,
      "Ġ2": 536,
      "Ġë¶": 537,
      "£¼": 538,
      "ëĿ": 539,
      "ìĤ¬": 540,
      "Ġas": 541,
      "ment": 542,
      "ëĭĪëĭ¤": 543,
      "Ġë§": 544,
      "ra": 545,
      "ow": 546,
      "ìļ©": 547,
      "íķł": 548,
      "ì²": 549,
      "ith": 550,
      "ĠëĤ": 551,
      "ir": 552,
      "ëĿ¼": 553,
      "ìĽ": 554,
      "ìĨ": 555,
      "if": 556,
      "Ġìłľ": 557,
      "Ġwith": 558,
      "íĺ": 559,
      "ìĻ": 560,
      "ëŁ": 561,
      "Ġìĺ": 562,
      "el": 563,
      "ê·": 564,
      "ë¶Ģ": 565,
      "ver": 566,
      "Ġy": 567,
      "ì¹": 568,
      "os": 569,
      "íķĺëĬĶ": 570,
      "Ġit": 571,
      "´Ģ": 572,
      "ëĲĺ": 573,
      "ìłľ": 574,
      "Ġêµ": 575,
      "Ġê¸°": 576,
      "ect": 577,
      "ìĥģ": 578,
      "Ġex": 579,
      "ter": 580,
      "ere": 581,
      "Ġê²ĥ": 582,
      "ĥĿ": 583,
      "am": 584,
      "od": 585,
      "ëĵ¤": 586,
      "ìļĶ": 587,
      "ëĲľ": 588,
      "Ġê°Ģ": 589,
      "Ġde": 590,
      "ìŀ¥": 591,
      "ìĹ¬": 592,
      "ĠA": 593,
      "ore": 594,
      "Ġcom": 595,
      "Ġê·": 596,
      "Ġëı": 597,
      "ĠíĻ": 598,
      "ge": 599,
      "Ġv": 600,
      "¹Ħ": 601,
      "¡°": 602,
      "ate": 603,
      "Ġare": 604,
      "Ġíķ": 605,
      "Ġwas": 606,
      "Ġëª": 607,
      "ë©´": 608,
      "ĠC": 609,
      "ëĤĺ": 610,
      "ê²Į": 611,
      "ëª": 612,
      "Ġsu": 613,
      "00": 614,
      "ë²": 615,
      "ìĻĢ": 616,
      "ity": 617,
      "ëŀ": 618,
      "ĠìłĦ": 619,
      "ive": 620,
      "¤ĳ": 621,
      "ĠS": 622,
      "Ġì§Ģ": 623,
      "Ġby": 624,
      "res": 625,
      "íĻĶ": 626,
      "est": 627,
      "th": 628,
      "Ġal": 629,
      "her": 630,
      "Ġyou": 631,
      "um": 632,
      "êµ¬": 633,
      "íĬ": 634,
      "Ġor": 635,
      "Ġwh": 636,
      "ess": 637,
      "Ġë³´": 638,
      "ìķĦ": 639,
      "ab": 640,
      "íĦ": 641,
      "ud": 642,
      "Ġse": 643,
      "ìĿ¼": 644,
      "ìĪĺ": 645,
      "pp": 646,
      "ad": 647,
      "ĠìľĦ": 648,
      "ri": 649,
      "Ġìĭľ": 650,
      "oc": 651,
      "Ġíĺ": 652,
      "¯¸": 653,
      "ì¹ĺ": 654,
      "ist": 655,
      "ĠI": 656,
      "ill": 657,
      "Ĥ°": 658,
      "ìłĦ": 659,
      "em": 660,
      "Ġìłķ": 661,
      "qu": 662,
      "ated": 663,
      "íķĺê³ł": 664,
      "Ġìļ": 665,
      "ìĽĲ": 666,
      "ant": 667,
      "Ġìĥģ": 668,
      "íĥ": 669,
      "Ġìľł": 670,
      "ëĮĢ": 671,
      "ain": 672,
      "íĦ°": 673,
      "íĬ¸": 674,
      "ers": 675,
      "rom": 676,
      "ìĨĮ": 677,
      "Ġat": 678,
      "ìĬµ": 679,
      "nt": 680,
      "op": 681,
      "ı¬": 682,
      "Ġus": 683,
      "du": 684,
      "se": 685,
      "íķľëĭ¤": 686,
      "ëħ": 687,
      "iv": 688,
      "ì¶": 689,
      "ure": 690,
      "ies": 691,
      "ë³´": 692,
      "Ġëĵ": 693,
      "ì²´": 694,
      "ë£": 695,
      "ial": 696,
      "Ġê´Ģ": 697,
      "Ġcomp": 698,
      "ì£¼": 699,
      "Ġr": 700,
      "Ġê²½": 701,
      "Ġìĸ": 702,
      "Ġ3": 703,
      "ĠìĨ": 704,
      "ort": 705,
      "'s": 706,
      "Ġmay": 707,
      "Ġëĭ¤": 708,
      "Ġë¬": 709,
      "ļĮ": 710,
      "êµŃ": 711,
      "íķĺìĹ¬": 712,
      "Ġì£¼": 713,
      "Ĩµ": 714,
      "act": 715,
      "ìļ°": 716,
      "Ġfrom": 717,
      "ëıĻ": 718,
      "ê¸": 719,
      "ê³Ħ": 720,
      "Ġì¤ĳ": 721,
      "ĠìĹ°": 722,
      "ëį": 723,
      "Ġë°ı": 724,
      "ë§Į": 725,
      "ëŁ¬": 726,
      "Ġcan": 727,
      "ĠìĿ¸": 728,
      "Ġcont": 729,
      "Ġinc": 730,
      "Ġsh": 731,
      "ëĵľ": 732,
      "±°": 733,
      "Ġha": 734,
      "Ġun": 735,
      "ac": 736,
      "igh": 737,
      "ìĤ°": 738,
      "iz": 739,
      "Ġres": 740,
      "Ġch": 741,
      "AA": 742,
      "ong": 743,
      "íĶ": 744,
      "In": 745,
      "ĠB": 746,
      "ĠP": 747,
      "Ġëį": 748,
      "ìĬµëĭĪëĭ¤": 749,
      "ase": 750,
      "Ġne": 751,
      "Ġì¶": 752,
      "ding": 753,
      "ult": 754,
      "ê·¸": 755,
      "ìĹħ": 756,
      "Ġhe": 757,
      "ìĿ´ëĭ¤": 758,
      "íĸĪëĭ¤": 759,
      "Ġnot": 760,
      "ê°Ħ": 761,
      "Ġthis": 762,
      "age": 763,
      "ld": 764,
      "íĸī": 765,
      "Ġê·¸": 766,
      "orm": 767,
      "ĠìŀĲ": 768,
      "ì°": 769,
      "ìĦ¸": 770,
      "ĠK": 771,
      "ìĭł": 772,
      "ĠìĿĺ": 773,
      "ë¬¸": 774,
      "Ġle": 775,
      "per": 776,
      "art": 777,
      "Ġëª¨": 778,
      "ice": 779,
      "Ġwere": 780,
      "Ġë¶Ħ": 781,
      "ĠìķĦ": 782,
      "ĠM": 783,
      "ĠëĶ": 784,
      "cc": 785,
      "Ġë°ľ": 786,
      "íķ©": 787,
      "Ġì°": 788,
      "Ġhave": 789,
      "Ġim": 790,
      "Ġë¶Ģ": 791,
      "ical": 792,
      "¦Ŀ": 793,
      "ì¡°": 794,
      "Ġêµ¬": 795,
      "ĠíĶ": 796,
      "Ġë¹Ħ": 797,
      "ke": 798,
      "ìĺĢ": 799,
      "pl": 800,
      "Ġ\"": 801,
      "ëł¥": 802,
      "ë¬¼": 803,
      "og": 804,
      "pe": 805,
      "Ġad": 806,
      "ë¹Ħ": 807,
      "ĠíĮ": 808,
      "Ġì¡°": 809,
      "ff": 810,
      "ëªħ": 811,
      "ition": 812,
      "Ġì²": 813,
      "Ġdis": 814,
      "and": 815,
      "ë¶Ħ": 816,
      "form": 817,
      "ë©°": 818,
      "ĠëĤĺ": 819,
      "pt": 820,
      "ust": 821,
      "ĠìĿ¼": 822,
      "Ġpl": 823,
      "ction": 824,
      "Ġê³µ": 825,
      "Ġint": 826,
      "ĠìŀĪëĬĶ": 827,
      "ìĭĿ": 828,
      "Ġë²": 829,
      "ìĹĪëĭ¤": 830,
      "Ġê²°": 831,
      "Ġíķĺ": 832,
      "ĠëĮĢíķľ": 833,
      "ance": 834,
      "ans": 835,
      "ĠìķĬ": 836,
      "Ġen": 837,
      "ĳľ": 838,
      "ĠF": 839,
      "ìĥĿ": 840,
      "ĽĦ": 841,
      "ĠD": 842,
      "ê³µ": 843,
      "Ġëĵ±": 844,
      "ous": 845,
      "ĠìĤ¬ìļ©": 846,
      "ĠìĥĿ": 847,
      "ìŀħ": 848,
      "ê´Ģ": 849,
      "Ġwe": 850,
      "Ġhas": 851,
      "ĠëıĻ": 852,
      "Ġê°ľ": 853,
      "ìľĦ": 854,
      "ich": 855,
      "Ġ5": 856,
      "ë¯¸": 857,
      "ĠìĨĮ": 858,
      "ĠíĨµ": 859,
      "gh": 860,
      "ther": 861,
      "ĠëĤ´": 862,
      "Ġwill": 863,
      "Ġë°©": 864,
      "Ġper": 865,
      "ëħĦ": 866,
      "ine": 867,
      "Ġ4": 868,
      "ëĭ¨": 869,
      "ell": 870,
      "red": 871,
      "ë²ķ": 872,
      "ìłģìľ¼ë¡ľ": 873,
      "Ġab": 874,
      "íļĮ": 875,
      "ip": 876,
      "íĮ": 877,
      "ìķĪ": 878,
      "ìķ¼": 879,
      "Ġme": 880,
      "ê°ľ": 881,
      "ì§Ħ": 882,
      "Ġwhe": 883,
      "ìĹŃ": 884,
      "rou": 885,
      "ĠëĲ": 886,
      "ëĭĪ": 887,
      "ib": 888,
      "ìŀ¬": 889,
      "ĠN": 890,
      "ìľł": 891,
      "íħ": 892,
      "ight": 893,
      "Ġìĺģ": 894,
      "ìĺĢëĭ¤": 895,
      "Ġwhich": 896,
      "ĠìĦ¸": 897,
      "ëĦ": 898,
      "ĠH": 899,
      "ign": 900,
      "ķĮ": 901,
      "It": 902,
      "ìĸĳ": 903,
      "ëł¤": 904,
      "ëĬ¥": 905,
      "Ġê³ł": 906,
      "±´": 907,
      "ĴĪ": 908,
      "Th": 909,
      "ast": 910,
      "Ġíķľ": 911,
      "ìĭ¤": 912,
      "ue": 913,
      "Ġìĭ¤": 914,
      "Ġapp": 915,
      "der": 916,
      "ĠG": 917,
      "ì§Ī": 918,
      "ĺĲ": 919,
      "ì¶ľ": 920,
      "íĥĢ": 921,
      "all": 922,
      "vel": 923,
      "ëĭ¹": 924,
      "ìłģìĿ¸": 925,
      "so": 926,
      "Ġtr": 927,
      "ations": 928,
      "ĠE": 929,
      "ģ¬": 930,
      "Ġê°Ĳ": 931,
      "Ġíı¬": 932,
      "íĹ": 933,
      "íķĻ": 934,
      "ang": 935,
      "ag": 936,
      "ents": 937,
      "ide": 938,
      "íķ¨": 939,
      "ë¥¸": 940,
      "ould": 941,
      "ĠëķĮ": 942,
      "ë£Į": 943,
      "Ġíķ´": 944,
      "ĠëĶ°": 945,
      "¢ħ": 946,
      "Ġë¯¸": 947,
      "ì¡": 948,
      "íĺ¸": 949,
      "Ġcl": 950,
      "ê±°": 951,
      "Ġëĭ¨": 952,
      "ĠíĬ": 953,
      "ĠëĨ": 954,
      "ĠT": 955,
      "íĴĪ": 956,
      "ĠìĽ": 957,
      "able": 958,
      "ê¹": 959,
      "Ġ20": 960,
      "ĠëıĦ": 961,
      "Ġì¹": 962,
      "ary": 963,
      "end": 964,
      "ĳĲ": 965,
      "ĠíĻķ": 966,
      "Ġpre": 967,
      "íŀ": 968,
      "ount": 969,
      "íı¬": 970,
      "¤Ģ": 971,
      "ens": 972,
      "Ġalso": 973,
      "ë¬´": 974,
      "íĺķ": 975,
      "ĠìĬ": 976,
      "ĠìĻ": 977,
      "ĠìĹĨ": 978,
      "ê²½": 979,
      "con": 980,
      "ìĦĿ": 981,
      "ost": 982,
      "port": 983,
      "Ġìĭł": 984,
      "Ġgo": 985,
      "ence": 986,
      "ìĦł": 987,
      "ìĪ": 988,
      "íķĺê¸°": 989,
      "ë¡Ŀ": 990,
      "Ġìŀ¥": 991,
      "lect": 992,
      "Ġprodu": 993,
      "ĠìĹ¬": 994,
      "ime": 995,
      "ĠAAA": 996,
      "ear": 997,
      "Ġê¸": 998,
      "ìĹ°": 999,
      "iff": 1000,
      "Ġë°°": 1001,
      "ĠL": 1002,
      "íŀĪ": 1003,
      "ome": 1004,
      "ë¥´": 1005,
      "Ġ'": 1006,
      "Ġíĸ": 1007,
      "Ġwor": 1008,
      "ëĤ´": 1009,
      "ĠKore": 1010,
      "ê°ģ": 1011,
      "ĠìĦł": 1012,
      "µľ": 1013,
      "ap": 1014,
      "ìĿĮ": 1015,
      "Ġë°Ķ": 1016,
      "ific": 1017,
      "ë°ĺ": 1018,
      "our": 1019,
      "ëłĪ": 1020,
      "ê¸Ī": 1021,
      "out": 1022,
      "Ġacc": 1023,
      "ĠìĦľ": 1024,
      "ĠR": 1025,
      "êµĲ": 1026,
      "ĠìĹ°êµ¬": 1027,
      "Ġind": 1028,
      "lud": 1029,
      "ard": 1030,
      "íĹĺ": 1031,
      "Ġbut": 1032,
      "Ġstud": 1033,
      "ach": 1034,
      "nd": 1035,
      "Ġpart": 1036,
      "Ġ(": 1037,
      "Ġìłģ": 1038,
      "ê¹Į": 1039,
      "Ġso": 1040,
      "Ġíı": 1041,
      "ļ¨": 1042,
      "Ġsy": 1043,
      "íķĺìĺĢëĭ¤": 1044,
      "Ġreg": 1045,
      "BB": 1046,
      "ëŀĺ": 1047,
      "Ġem": 1048,
      "ry": 1049,
      "Ġìĸ´": 1050,
      "Ġê²½ìļ°": 1051,
      "ru": 1052,
      "cess": 1053,
      "ë³¸": 1054,
      "Ġgen": 1055,
      "íĸ¥": 1056,
      "ĠJ": 1057,
      "Ġì¶Ķ": 1058,
      "irst": 1059,
      "erm": 1060,
      "ions": 1061,
      "Ġ10": 1062,
      "ëª¨": 1063,
      "Ġëħ": 1064,
      "Ġì´": 1065,
      "ak": 1066,
      "Ġdi": 1067,
      "ĠìĦ±": 1068,
      "ĠìľĦíķ´": 1069,
      "ĠêµŃ": 1070,
      "ëį°": 1071,
      "Ġê°Ļ": 1072,
      "Ġman": 1073,
      "ĠìĺĪ": 1074,
      "10": 1075,
      "ĠëĺĲ": 1076,
      "are": 1077,
      "ìļ´": 1078,
      "Ġte": 1079,
      "Ġthere": 1080,
      "aus": 1081,
      "Ġpres": 1082,
      "ëĲł": 1083,
      "Ġbeen": 1084,
      "ased": 1085,
      "ìĺ¤": 1086,
      "Ġë¬¸": 1087,
      "Ġexp": 1088,
      "ok": 1089,
      "íİ": 1090,
      "Ġ6": 1091,
      "ia": 1092,
      "½Ķ": 1093,
      "ĠíĬ¹": 1094,
      "Ġdiff": 1095,
      "Ġact": 1096,
      "ĠìłĢ": 1097,
      "ë°©": 1098,
      "Ġë³Ģ": 1099,
      "Ġall": 1100,
      "Ġì¦Ŀ": 1101,
      "ì¤Ģ": 1102,
      "ìĹĪ": 1103,
      "Ġk": 1104,
      "Ġrec": 1105,
      "Ġinclud": 1106,
      "ĠëįĶ": 1107,
      "Ġëį°": 1108,
      "Ġë©": 1109,
      "rough": 1110,
      "ë§Ī": 1111,
      "¯¼": 1112,
      "ative": 1113,
      "Ġrel": 1114,
      "ious": 1115,
      "Ĩł": 1116,
      "ber": 1117,
      "¶Į": 1118,
      "Ġev": 1119,
      "Ġtrans": 1120,
      "Ġag": 1121,
      "ĠìĦ¤": 1122,
      "ëŁī": 1123,
      "ëĶ": 1124,
      "Ġfirst": 1125,
      "ìĹĲëĬĶ": 1126,
      "Ġout": 1127,
      "erv": 1128,
      "ì¤ĳ": 1129,
      "Ġë°ĺ": 1130,
      "ìĨį": 1131,
      "ace": 1132,
      "Ġê±°": 1133,
      "ëł¨": 1134,
      "ĠíķĦ": 1135,
      "Ġìĺ¤": 1136,
      "ĠU": 1137,
      "ìħ": 1138,
      "Ġë§Ī": 1139,
      "Ġìļ°": 1140,
      "íķĺê²Į": 1141,
      "ë°ľ": 1142,
      "ual": 1143,
      "Ġam": 1144,
      "ì°¨": 1145,
      "Ġíĥ": 1146,
      "Ġj": 1147,
      "20": 1148,
      "Ġcons": 1149,
      "Ġtime": 1150,
      "ì¸": 1151,
      "ĠìĽĲ": 1152,
      "ass": 1153,
      "fter": 1154,
      "Ġthan": 1155,
      "ìłĢ": 1156,
      "Ġdet": 1157,
      "ê²°": 1158,
      "ĠêµĲ": 1159,
      "ĠìļĶ": 1160,
      "ose": 1161,
      "Ġì§Ħ": 1162,
      "Ġíı¬íķ¨": 1163,
      "Ġê²ĥìľ¼ë¡ľ": 1164,
      "ìłĲ": 1165,
      "Ġother": 1166,
      "dition": 1167,
      "ree": 1168,
      "This": 1169,
      "ëĲĺëĬĶ": 1170,
      "ĠìĬ¤": 1171,
      "Ġinv": 1172,
      "ìŀĳ": 1173,
      "Ġinter": 1174,
      "ater": 1175,
      "ì§Ģë§Į": 1176,
      "Ġê³Ħ": 1177,
      "íĭ": 1178,
      "Ġìµľ": 1179,
      "Ġpat": 1180,
      "Ġsuch": 1181,
      "ìĪł": 1182,
      "ced": 1183,
      "Ġmore": 1184,
      "ĠíļĮ": 1185,
      "ìĺģ": 1186,
      "ĠíĽĦ": 1187,
      "Ġsub": 1188,
      "ie": 1189,
      "ê±´": 1190,
      "Ġeff": 1191,
      "ì¦Ŀ": 1192,
      "íģ¬": 1193,
      "pec": 1194,
      "ìĭ¬": 1195,
      "ates": 1196,
      "Ġíĳľ": 1197,
      "ĠíĻĺ": 1198,
      "ìķĺ": 1199,
      "ors": 1200,
      "up": 1201,
      "ëĲľëĭ¤": 1202,
      "Ġro": 1203,
      "Ġone": 1204,
      "Ġthrough": 1205,
      "ĠìķĮ": 1206,
      "Ġbet": 1207,
      "Ġsa": 1208,
      "we": 1209,
      "ating": 1210,
      "ame": 1211,
      "Ġsc": 1212,
      "Ħë¡ľ": 1213,
      "Ġli": 1214,
      "ĠíĻľ": 1215,
      "Ġob": 1216,
      "Ġmet": 1217,
      "Ġsp": 1218,
      "Ġbec": 1219,
      "ory": 1220,
      "íĤ": 1221,
      "ĠìŀĪìĬµëĭĪëĭ¤": 1222,
      "uc": 1223,
      "ub": 1224,
      "Ġíĺķ": 1225,
      "ph": 1226,
      "Ġyour": 1227,
      "ile": 1228,
      "ational": 1229,
      "ĠìķĪ": 1230,
      "Ġìŀ¬": 1231,
      "Ġprov": 1232,
      "ress": 1233,
      "Ġìŀħ": 1234,
      "ë£¨": 1235,
      "íĳľ": 1236,
      "Ġë§¤": 1237,
      "Ġì°¨": 1238,
      "ording": 1239,
      "stem": 1240,
      "íĥľ": 1241,
      "íĺĦ": 1242,
      "íĨµ": 1243,
      "Ġpos": 1244,
      "Ġwho": 1245,
      "ject": 1246,
      "ll": 1247,
      "Ġinform": 1248,
      "ark": 1249,
      "ëĵ¤ìĿ´": 1250,
      "te": 1251,
      "Ġqu": 1252,
      "Ġ7": 1253,
      "Ġco": 1254,
      "Ġar": 1255,
      "Ġdo": 1256,
      "We": 1257,
      "Ġë¬´": 1258,
      "ĠëĤĺíĥĢ": 1259,
      "ë¶ĢíĦ°": 1260,
      "ood": 1261,
      "lic": 1262,
      "ëĲĺìĹĪëĭ¤": 1263,
      "Ġë§Į": 1264,
      "Ġê³¼": 1265,
      "íĽĦ": 1266,
      "ë¥ĺ": 1267,
      "Ġcompan": 1268,
      "Ġincre": 1269,
      "ê¸ī": 1270,
      "Ġsign": 1271,
      "ility": 1272,
      "ĠíĺĦ": 1273,
      "ìĹ¼": 1274,
      "Ġcomm": 1275,
      "ìķ½": 1276,
      "íĿ": 1277,
      "íĸĪ": 1278,
      "Ġìĥ": 1279,
      "ause": 1280,
      "Ġimp": 1281,
      "´ĳ": 1282,
      "ìĹĲê²Į": 1283,
      "Ġproduct": 1284,
      "Ġíķľëĭ¤": 1285,
      "Ġyear": 1286,
      "Ġvar": 1287,
      "Ġresult": 1288,
      "low": 1289,
      "Ġsystem": 1290,
      "ric": 1291,
      "Ġë§İ": 1292,
      "Ġcol": 1293,
      "ied": 1294,
      "FF": 1295,
      "Ġdat": 1296,
      "ìľ¼ë©°": 1297,
      "ĠëĨĴ": 1298,
      "und": 1299,
      "ìŀĦ": 1300,
      "ì¢ħ": 1301,
      "Ġtra": 1302,
      "íĶĮ": 1303,
      "Ġë¶Ī": 1304,
      "Ġ19": 1305,
      "ìŀħëĭĪëĭ¤": 1306,
      "one": 1307,
      "ween": 1308,
      "Ġwhen": 1309,
      "Ġê°ĢëĬ¥": 1310,
      "ail": 1311,
      "ities": 1312,
      "Ġdev": 1313,
      "ì´": 1314,
      "aly": 1315,
      "ĠëĺĲëĬĶ": 1316,
      "Ġinformation": 1317,
      "ìĦ±ìĿĦ": 1318,
      "Ī¬": 1319,
      "Ġbetween": 1320,
      "ìĿ´ëĿ¼": 1321,
      "Ġíļ¨": 1322,
      "íĻĺ": 1323,
      "ê¶Į": 1324,
      "Ġass": 1325,
      "Ġê°Ħ": 1326,
      "ĠíķĻ": 1327,
      "Ġê²Ģ": 1328,
      "ìĹĲìĦľëĬĶ": 1329,
      "ces": 1330,
      "ĠíķĦìļĶ": 1331,
      "Ġmod": 1332,
      "ĠíĨµíķ´": 1333,
      "ì§ģ": 1334,
      "ê²©": 1335,
      "rib": 1336,
      "ìĿ´íĦ°": 1337,
      "ĠëĶ°ëĿ¼": 1338,
      "Ġshow": 1339,
      "Ġinf": 1340,
      "íħĮ": 1341,
      "íı": 1342,
      "ëĲĺìĸ´": 1343,
      "ĠëĮĢíķ´": 1344,
      "int": 1345,
      "olog": 1346,
      "Ġafter": 1347,
      "ĠëĲĺ": 1348,
      "ë¦½": 1349,
      "Ġac": 1350,
      "Ġdata": 1351,
      "ĠKorea": 1352,
      "ob": 1353,
      "ĠCh": 1354,
      "ĠBBB": 1355,
      "íķ©ëĭĪëĭ¤": 1356,
      "Ġused": 1357,
      "ë§¤": 1358,
      "Ġdiffere": 1359,
      "íķĺì§Ģ": 1360,
      "Ġspec": 1361,
      "ë¯¼": 1362,
      "íĨł": 1363,
      "reat": 1364,
      "Ġë¶ĦìĦĿ": 1365,
      "Ġëĭ¤ë¥¸": 1366,
      "Ġform": 1367,
      "Ġê²°ê³¼": 1368,
      "ep": 1369,
      "ëĵł": 1370,
      "Ġê°ķ": 1371,
      "ized": 1372,
      "Ġê°ģ": 1373,
      "Ġ8": 1374,
      "pon": 1375,
      "ĠìĤ": 1376,
      "Ġìŀĳ": 1377,
      "very": 1378,
      "wo": 1379,
      "Ġdes": 1380,
      "Ġíıī": 1381,
      "ë³Ħ": 1382,
      "ëĳĲ": 1383,
      "19": 1384,
      "Ġabout": 1385,
      "ìĽĶ": 1386,
      "Ġë°Ľ": 1387,
      "Ġê´Ģëł¨": 1388,
      "ake": 1389,
      "hen": 1390,
      "Ġfin": 1391,
      "Ġprocess": 1392,
      "velop": 1393,
      "ĠìĭĿ": 1394,
      "ĠO": 1395,
      "ìľ¨": 1396,
      "íķĺëĭ¤": 1397,
      "ëĤľ": 1398,
      "Ġour": 1399,
      "Ġíİ": 1400,
      "ì²Ń": 1401,
      "Ġconf": 1402,
      "Ġperform": 1403,
      "ê¹Įì§Ģ": 1404,
      "ê·ł": 1405,
      "Ġunder": 1406,
      "ural": 1407,
      "Ġsupp": 1408,
      "ĠëķĮë¬¸": 1409,
      "Ġìłľê³µ": 1410,
      "ected": 1411,
      "Ġmed": 1412,
      "ution": 1413,
      "Ġdec": 1414,
      "ìľ¡": 1415,
      "Ġìłķë³´": 1416,
      "ack": 1417,
      "Ġcontro": 1418,
      "ĠW": 1419,
      "ĠìľĦíķľ": 1420,
      "Ġover": 1421,
      "Ġíķł": 1422,
      "ë¸": 1423,
      "ax": 1424,
      "ound": 1425,
      "Ġif": 1426,
      "ëĦ¤": 1427,
      "Ġtheir": 1428,
      "Ġpr": 1429,
      "row": 1430,
      "ĠëĦ": 1431,
      "ĠíĮĮ": 1432,
      "ĢìĿ´": 1433,
      "ention": 1434,
      "Ġhigh": 1435,
      "íĶĦ": 1436,
      "Ġanaly": 1437,
      "ove": 1438,
      "hed": 1439,
      "Ġlike": 1440,
      "Ġê²ĥìĿ´ëĭ¤": 1441,
      "ëĵ¤ìĿĢ": 1442,
      "Ġpe": 1443,
      "Ġwork": 1444,
      "Ġcor": 1445,
      "ì¦": 1446,
      "ĠíĮĲ": 1447,
      "ĠìĤ°": 1448,
      "Ġeffect": 1449,
      "ëŁ¬íķľ": 1450,
      "Ġgener": 1451,
      "±ħ": 1452,
      "ident": 1453,
      "Ġë§Ĳ": 1454,
      "ìĿĳ": 1455,
      "Ġonly": 1456,
      "ìĺĪ": 1457,
      "Ġì¢": 1458,
      "ìĥ": 1459,
      "ë°Ķ": 1460,
      "ëıĦë¡Ŀ": 1461,
      "acter": 1462,
      "ìŀĲìĿĺ": 1463,
      "Ġ9": 1464,
      "Ġpo": 1465,
      "Ġloc": 1466,
      "ract": 1467,
      "ite": 1468,
      "Ġëħ¸": 1469,
      "ular": 1470,
      "Ġdevelop": 1471,
      "Ġfe": 1472,
      "ange": 1473,
      "As": 1474,
      "ë¡ł": 1475,
      "Ġíķ¨": 1476,
      "Ġ200": 1477,
      "ĠíĶ¼": 1478,
      "Ġeach": 1479,
      "ection": 1480,
      "cy": 1481,
      "Ġph": 1482,
      "Ġthey": 1483,
      "cond": 1484,
      "ments": 1485,
      "Ġdevice": 1486,
      "Ġnew": 1487,
      "ient": 1488,
      "ë¦°": 1489,
      "Ġsur": 1490,
      "now": 1491,
      "ê²ł": 1492,
      "Ġnum": 1493,
      "ĠëĳĲ": 1494,
      "Ġno": 1495,
      "Ġtwo": 1496,
      "ê°Ĳ": 1497,
      "Ġëĭ¹": 1498,
      "Ġval": 1499,
      "tern": 1500,
      "ĠìĹŃ": 1501,
      "ì¼": 1502,
      "íķĺë©´": 1503,
      "Ġunit": 1504,
      "ìĨ¡": 1505,
      "Ġìĸĳ": 1506,
      "ally": 1507,
      "Ġëį°ìĿ´íĦ°": 1508,
      "íĥĿ": 1509,
      "ëŀĮ": 1510,
      "Ġinto": 1511,
      "íĤ¤": 1512,
      "ìĻ¸": 1513,
      "ower": 1514,
      "ìłĪ": 1515,
      "Ġatt": 1516,
      "Ġits": 1517,
      "Ġì¢ħ": 1518,
      "Ġsecond": 1519,
      "Ġcase": 1520,
      "íĶ¼": 1521,
      "uring": 1522,
      "Ġíķ©": 1523,
      "ê·¼": 1524,
      "ĠíĿ": 1525,
      "Ġins": 1526,
      "ë³ĳ": 1527,
      "tain": 1528,
      "íķŃ": 1529,
      "ye": 1530,
      "Ġíĸī": 1531,
      "ermin": 1532,
      "Ġusing": 1533,
      "Ġoff": 1534,
      "ĠìŀĪìĸ´": 1535,
      "Ġì²ĺ": 1536,
      "Ġì»": 1537,
      "íĭ°": 1538,
      "ê»": 1539,
      "ëĭ¬": 1540,
      "ire": 1541,
      "ays": 1542,
      "sis": 1543,
      "Ġpol": 1544,
      "sib": 1545,
      "ning": 1546,
      "ìĦ±ìĿ´": 1547,
      "Ġë¬¼": 1548,
      "íĮĮ": 1549,
      "Ġê±´": 1550,
      "Ġì§ģ": 1551,
      "ĠìłĲ": 1552,
      "Ġsaid": 1553,
      "ëĵ¤ìĿĺ": 1554,
      "av": 1555,
      "Ġra": 1556,
      "Ġcell": 1557,
      "ëĶĶ": 1558,
      "ë³´ëĭ¤": 1559,
      "Ġ201": 1560,
      "ĠíĶĦë¡ľ": 1561,
      "Â·": 1562,
      "ì²ľ": 1563,
      "Ġpartic": 1564,
      "íĿ¬": 1565,
      "ases": 1566,
      "Ġê·ľ": 1567,
      "Ġì¸": 1568,
      "Ġbecause": 1569,
      "Ġmeth": 1570,
      "ted": 1571,
      "ish": 1572,
      "±Ħ": 1573,
      "ered": 1574,
      "ĠëĶĶ": 1575,
      "Ġë°ľìĥĿ": 1576,
      "Ġstudy": 1577,
      "ì²ĺ": 1578,
      "ĠìĻ¸": 1579,
      "gan": 1580,
      "ook": 1581,
      "ìĦ¤": 1582,
      "Ġref": 1583,
      "ĠíķŃ": 1584,
      "Ġoper": 1585,
      "·¨": 1586,
      "ìķ¡": 1587,
      "ë¦¬ëĬĶ": 1588,
      "Ġup": 1589,
      "Ġelect": 1590,
      "Ġíģ": 1591,
      "put": 1592,
      "ĠíĻķìĿ¸": 1593,
      "Ġê²ĥìĿ´": 1594,
      "Ġpresent": 1595,
      "ìŀĲê°Ģ": 1596,
      "Ġcount": 1597,
      "Ġê²ĥìĿĦ": 1598,
      "ì½Ķ": 1599,
      "Ġë¹": 1600,
      "Ġmon": 1601,
      "Ġìĺģíĸ¥": 1602,
      "ê»ĺ": 1603,
      "ks": 1604,
      "Ġest": 1605,
      "Ġrece": 1606,
      "Ġright": 1607,
      "Ġì´Ī": 1608,
      "ics": 1609,
      "ram": 1610,
      "Ġchar": 1611,
      "ëįĺ": 1612,
      "ìķĺëĭ¤": 1613,
      "ung": 1614,
      "ures": 1615,
      "Ġ0": 1616,
      "ae": 1617,
      "NA": 1618,
      "30": 1619,
      "Ġë©Ķ": 1620,
      "ince": 1621,
      "roup": 1622,
      "Ġì¶ľ": 1623,
      "Ġëªħ": 1624,
      "ron": 1625,
      "ople": 1626,
      "ef": 1627,
      "Ġì¹ĺ": 1628,
      "Ġwould": 1629,
      "Ġë¬¸ìłľ": 1630,
      "Ġ100": 1631,
      "Ġë³µ": 1632,
      "Ġexper": 1633,
      "Ġfact": 1634,
      "Ġê°ĻìĿĢ": 1635,
      "Ġprev": 1636,
      "ren": 1637,
      "ê°ķ": 1638,
      "Ġrequ": 1639,
      "old": 1640,
      "irm": 1641,
      "ple": 1642,
      "Ġnumber": 1643,
      "ov": 1644,
      "Ġknow": 1645,
      "Ġhad": 1646,
      "Ġëĭ¤ìĸĳ": 1647,
      "ĠìĦ¸íı¬": 1648,
      "ĠíĪ¬": 1649,
      "ited": 1650,
      "Ġì¦Ŀê°Ģ": 1651,
      "Ġmem": 1652,
      "Ġë³¸": 1653,
      "There": 1654,
      "Ġìĥģê¸°": 1655,
      "ì¡´": 1656,
      "âĢ": 1657,
      "Ġíģ¬": 1658,
      "ital": 1659,
      "vern": 1660,
      "Ġneed": 1661,
      "ization": 1662,
      "ough": 1663,
      "Ġmethod": 1664,
      "Ġì½Ķ": 1665,
      "ì§ĳ": 1666,
      "Ġì§ĳ": 1667,
      "Ġì¸¡": 1668,
      "vers": 1669,
      "AAA": 1670,
      "abl": 1671,
      "aw": 1672,
      "ec": 1673,
      "ĠëĬ": 1674,
      "ëłĪìĿ´": 1675,
      "Ġì°¸": 1676,
      "ĠìĿ´ìļ©": 1677,
      "Ġmark": 1678,
      "Ġë²ķ": 1679,
      "Ġìķ½": 1680,
      "Ġserv": 1681,
      "Ġinst": 1682,
      "ink": 1683,
      "Ġcompany": 1684,
      "ë³Ģ": 1685,
      "arch": 1686,
      "ĠìĪ": 1687,
      "Ġactiv": 1688,
      "Ġbl": 1689,
      "Ġaccording": 1690,
      "Ġcur": 1691,
      "xt": 1692,
      "Ġconc": 1693,
      "Ġcontrol": 1694,
      "ins": 1695,
      "Ġìłĳ": 1696,
      "'t": 1697,
      "ĠìłľíĴĪ": 1698,
      "Ġìļ´": 1699,
      "Ġdisc": 1700,
      "ê·¹": 1701,
      "ĠìĿĺíķ´": 1702,
      "ë°°": 1703,
      "Ġìŀ¥ì¹ĺ": 1704,
      "êµ°": 1705,
      "Ġdire": 1706,
      "Ġsm": 1707,
      "Ġê¸Ī": 1708,
      "ĠV": 1709,
      "Ġpeople": 1710,
      "Ġshould": 1711,
      "Ġaddition": 1712,
      "ĠFFF": 1713,
      "iss": 1714,
      "Ġê°Ģì§Ģ": 1715,
      "Ġì§ĢìĹŃ": 1716,
      "Ġwhere": 1717,
      "000": 1718,
      "ì¡±": 1719,
      "Ġ12": 1720,
      "ble": 1721,
      "ë°±": 1722,
      "Ġdue": 1723,
      "ium": 1724,
      "ê´ĳ": 1725,
      "ĠíĻĶ": 1726,
      "If": 1727,
      "Ġlevel": 1728,
      "ients": 1729,
      "Ġed": 1730,
      "íĮĲ": 1731,
      "50": 1732,
      "ë²Ī": 1733,
      "fore": 1734,
      "Ġëĭ¬": 1735,
      "Ġthese": 1736,
      "ism": 1737,
      "ĠíķĺëĤĺ": 1738,
      "ise": 1739,
      "ize": 1740,
      "Ġent": 1741,
      "ë¸Į": 1742,
      "ĠY": 1743,
      "ĠìĿĮ": 1744,
      "anc": 1745,
      "ĠíķĺëĬĶ": 1746,
      "Ġmin": 1747,
      "ìħĺ": 1748,
      "Ġpers": 1749,
      "Ġuse": 1750,
      "Ġê²°ìłķ": 1751,
      "Ġpur": 1752,
      "Ġdifferent": 1753,
      "Ġinvest": 1754,
      "ìĥī": 1755,
      "Ġgrow": 1756,
      "ĠìĤ¬ìĿ´": 1757,
      "Ġthem": 1758,
      "oci": 1759,
      "ëħ¸": 1760,
      "Ġbu": 1761,
      "ared": 1762,
      "Ġgroup": 1763,
      "ëĿ½": 1764,
      "ĠìĿ´ìĥģ": 1765,
      "ĠìķĦëĭĪ": 1766,
      "Ġdist": 1767,
      "Ġëª©": 1768,
      "Ġë¦": 1769,
      "ì´Ī": 1770,
      "ìĹ´": 1771,
      "ë³µ": 1772,
      "Ġmain": 1773,
      "cept": 1774,
      "Ġcr": 1775,
      "iness": 1776,
      "Ġcar": 1777,
      "Ġë°©ë²ķ": 1778,
      "Ġì²´": 1779,
      "Ġgovern": 1780,
      "chn": 1781,
      "ì±ħ": 1782,
      "Ġêµ¬ìĦ±": 1783,
      "Ġëĵ¤": 1784,
      "Ġì¢ĭ": 1785,
      "ëł¹": 1786,
      "ë²Ħ": 1787,
      "Ġaut": 1788,
      "ds": 1789,
      "ool": 1790,
      "Ġrem": 1791,
      "ĠëıĻìķĪ": 1792,
      "ruct": 1793,
      "Ġrespon": 1794,
      "Ġbus": 1795,
      "Ġmy": 1796,
      "Ġfl": 1797,
      "ëĵ¤ìĿĦ": 1798,
      "oth": 1799,
      "Ġsame": 1800,
      "get": 1801,
      "Ġê°Ģìŀ¥": 1802,
      "conom": 1803,
      "ìļ¸": 1804,
      "Ġ30": 1805,
      "Ġty": 1806,
      "lement": 1807,
      "ê°Ŀ": 1808,
      "Ġext": 1809,
      "ìłĳ": 1810,
      "ature": 1811,
      "ĠëķĮë¬¸ìĹĲ": 1812,
      "uch": 1813,
      "Ġsome": 1814,
      "pos": 1815,
      "ìĿ´ëĬĶ": 1816,
      "ì¶ķ": 1817,
      "ided": 1818,
      "ëĵĿ": 1819,
      "ĠKorean": 1820,
      "ever": 1821,
      "ë¦¬ìķĦ": 1822,
      "ock": 1823,
      "iew": 1824,
      "ality": 1825,
      "ne": 1826,
      "Ġvarious": 1827,
      "Ġì§Ī": 1828,
      "ĠëĤ¨": 1829,
      "ĠëĨį": 1830,
      "Ġìĭ¤ìĭľ": 1831,
      "ëĸ": 1832,
      "ìĬ¤íĬ¸": 1833,
      "ê¸°ë¥¼": 1834,
      "ency": 1835,
      "ļį": 1836,
      "ration": 1837,
      "ìŀĲëĬĶ": 1838,
      "Ġtax": 1839,
      "hip": 1840,
      "Ġmarket": 1841,
      "ĠSe": 1842,
      "ĠìŀĦ": 1843,
      "Ġuser": 1844,
      "ĠIn": 1845,
      "Ġany": 1846,
      "ìĹĲëıĦ": 1847,
      "ì»": 1848,
      "ëĲĺê³ł": 1849,
      "ë¥ł": 1850,
      "ĠìĪĺíĸī": 1851,
      "Ġëĭ¤ìĸĳíķľ": 1852,
      "ting": 1853,
      "íħľ": 1854,
      "ade": 1855,
      "oun": 1856,
      "Ġreport": 1857,
      "Ġëĵľ": 1858,
      "ĠSt": 1859,
      "ĠìĥĪ": 1860,
      "Ġíļ¨ê³¼": 1861,
      "íİ¸": 1862,
      "ĠìĹ´": 1863,
      "de": 1864,
      "ë¹ĦìĬ¤": 1865,
      "Ġsim": 1866,
      "ê²¬": 1867,
      "chool": 1868,
      "Ġlar": 1869,
      "ĠíĶĮ": 1870,
      ".\"": 1871,
      "ank": 1872,
      "Ġrep": 1873,
      "Ġbased": 1874,
      "¤Ħ": 1875,
      "Ġcult": 1876,
      "Ġant": 1877,
      "Ġë¦¬": 1878,
      "Ġpossib": 1879,
      "Ġorder": 1880,
      "ty": 1881,
      "Ġser": 1882,
      "omm": 1883,
      "ĠíķľêµŃ": 1884,
      "ì°°": 1885,
      "ëª©": 1886,
      "ild": 1887,
      "Ġtechn": 1888,
      "ë©Ķ": 1889,
      "ë¦¬ê³ł": 1890,
      "erg": 1891,
      "ving": 1892,
      "alth": 1893,
      "pect": 1894,
      "Ġfol": 1895,
      "ĠìľłìłĦ": 1896,
      "Ġì¤ĳìļĶ": 1897,
      "Ġexam": 1898,
      "ë§Ĳ": 1899,
      "Ġfun": 1900,
      "rent": 1901,
      "Ġimport": 1902,
      "ë§Ŀ": 1903,
      "Ġmeas": 1904,
      "Ġ11": 1905,
      "Ġìĭľê°Ħ": 1906,
      "Ġeduc": 1907,
      "ëĲĺìĹĪ": 1908,
      "ines": 1909,
      "Ġfood": 1910,
      "íĻ©": 1911,
      "ĠíĹ": 1912,
      "ants": 1913,
      "Ġê·ł": 1914,
      "How": 1915,
      "Ġìĭ¬": 1916,
      "Ġëª¨ëĵł": 1917,
      "Ġë§İìĿĢ": 1918,
      "ified": 1919,
      "Ġdispl": 1920,
      "ĠìĦ¤ëªħ": 1921,
      "Ġset": 1922,
      "Ġarea": 1923,
      "ven": 1924,
      "Ġwell": 1925,
      "Ġìĺģíĸ¥ìĿĦ": 1926,
      "ì¹´": 1927,
      "duct": 1928,
      "ĠìłĪ": 1929,
      "ason": 1930,
      "ë©´ìĦľ": 1931,
      "Ķëĭ¤": 1932,
      "Ġì¡": 1933,
      "íķ´ìķ¼": 1934,
      "Ġdef": 1935,
      "ëĺĲ": 1936,
      "ê²ĥ": 1937,
      "ĠìĻĦ": 1938,
      "ĠìĤ´": 1939,
      "Ġeconom": 1940,
      "Ġëª¨ëĳĲ": 1941,
      "Ġtest": 1942,
      "ĠìĥĿìĦ±": 1943,
      "Ġíķ¨ê»ĺ": 1944,
      "Ġê·¼": 1945,
      "ìĬ¤íħľ": 1946,
      "Ġbusiness": 1947,
      "round": 1948,
      "ëĲĺì§Ģ": 1949,
      "Ġche": 1950,
      "als": 1951,
      "Ġë¨": 1952,
      "Ġmost": 1953,
      "Ġìļ©": 1954,
      "Ġredu": 1955,
      "ries": 1956,
      "nce": 1957,
      "íģ": 1958,
      "Ġì±Ħ": 1959,
      "ĠìĨĲ": 1960,
      "ëĵ±": 1961,
      "ĠëĲľ": 1962,
      "ëįĶ": 1963,
      "ĠíĮ¨": 1964,
      "Ġconsid": 1965,
      "ë¡Ģ": 1966,
      "Ġê²ĥìĿĢ": 1967,
      "elf": 1968,
      "ìĦ¸ìļĶ": 1969,
      "ĠìĹĲ": 1970,
      "Ġê´Ģê³Ħ": 1971,
      "ê±°ëĤĺ": 1972,
      "ically": 1973,
      "Ġë³ĢíĻĶ": 1974,
      "ì¸µ": 1975,
      "Ġlaw": 1976,
      "ìĺ¨": 1977,
      "ìĿ´ëĤĺ": 1978,
      "Ġcent": 1979,
      "ëıħ": 1980,
      "ìĦľëĬĶ": 1981,
      "Ġtreat": 1982,
      "ìł¸": 1983,
      "ë¨": 1984,
      "ìĽĮ": 1985,
      "ë¦Ħ": 1986,
      "ulation": 1987,
      "Ġsignific": 1988,
      "Ġë¸": 1989,
      "Ġê¸°ìĪł": 1990,
      "ix": 1991,
      "ĠìĤ¬ëŀĮ": 1992,
      "íļ¨": 1993,
      "Ġpub": 1994,
      "Ġëıħ": 1995,
      "Ġë²Ī": 1996,
      "Ġpatients": 1997,
      "ian": 1998,
      "ices": 1999,
      "ology": 2000,
      "ëĭ¤ëĬĶ": 2001,
      "Ġíħ": 2002,
      "Ġthree": 2003,
      "ues": 2004,
      "Ġorgan": 2005,
      "Ġincluding": 2006,
      "ëŁ°": 2007,
      "Ġanalysis": 2008,
      "Ġrese": 2009,
      "40": 2010,
      "ption": 2011,
      "ved": 2012,
      "ĠêµĲìľ¡": 2013,
      "Ġê°ĲìĹ¼": 2014,
      "Ġfound": 2015,
      "Ġfollow": 2016,
      "Ġdisplay": 2017,
      "Ġindust": 2018,
      "tic": 2019,
      "itive": 2020,
      "erest": 2021,
      "ts": 2022,
      "Ġìĺ¨": 2023,
      "blem": 2024,
      "Ġê¸°ìĹħ": 2025,
      "Ġperson": 2026,
      "lease": 2027,
      "pen": 2028,
      "Ġrate": 2029,
      "iron": 2030,
      "ience": 2031,
      "its": 2032,
      "Ġresults": 2033,
      "ëĦĪ": 2034,
      "Ġgood": 2035,
      "Ġduring": 2036,
      "ì§Ģë¥¼": 2037,
      "Ġcommun": 2038,
      "ìĥģê¸°": 2039,
      "Ġbeing": 2040,
      "Ġagain": 2041,
      "Ġë°ķ": 2042,
      "ìĿ´ìĬ¤": 2043,
      "When": 2044,
      "Ġproblem": 2045,
      "Ġ15": 2046,
      "ĠìĨį": 2047,
      "Ġconfirm": 2048,
      "Ġend": 2049,
      "Ġproducts": 2050,
      "Ġì¡´": 2051,
      "íĻľ": 2052,
      "Ġíĺ¸": 2053,
      "ìĿ´ëĿ¼ê³ł": 2054,
      "Ġgovernment": 2055,
      "ĠìĺģìĹŃ": 2056,
      "ëŁ¼": 2057,
      "Ģë¡ľ": 2058,
      "Ġëª»": 2059,
      "Ġvalue": 2060,
      "ĠìĤ¬íļĮ": 2061,
      "Ġpoint": 2062,
      "ily": 2063,
      "Ġì·¨": 2064,
      "Ġì¶©": 2065,
      "Ġgl": 2066,
      "ë§ī": 2067,
      "Ġìļ°ë¦¬": 2068,
      "Ġfunction": 2069,
      "ĠìĦłíĥĿ": 2070,
      "íİĺ": 2071,
      "Ġcould": 2072,
      "ck": 2073,
      "Ġsupport": 2074,
      "ĠUn": 2075,
      "ìĶ": 2076,
      "ick": 2077,
      "ìĿ´ëŁ¬íķľ": 2078,
      "Ġstra": 2079,
      "iment": 2080,
      "Ġclass": 2081,
      "Ġë³ĳ": 2082,
      "Ġinclude": 2083,
      "Ġìĸ´ëĸ": 2084,
      "ë¦¼": 2085,
      "Ġeven": 2086,
      "ëŀĢ": 2087,
      "ĠìĦľë¹ĦìĬ¤": 2088,
      "Ġvis": 2089,
      "12": 2090,
      "Ġíıīê°Ģ": 2091,
      "ĠìĭľìĬ¤íħľ": 2092,
      "oy": 2093,
      "ì£": 2094,
      "),": 2095,
      "Ġcomple": 2096,
      "ëŁ¬ìĬ¤": 2097,
      "ety": 2098,
      "ĠêµŃê°Ģ": 2099,
      "rate": 2100,
      "Ġsignificant": 2101,
      "ì¶Ķ": 2102,
      "Ġmade": 2103,
      "Ġìłģìļ©": 2104,
      "Ġcap": 2105,
      "iod": 2106,
      "ë°ķ": 2107,
      "ëıĦë¥¼": 2108,
      "ì¸¡": 2109,
      "Ġê²½ìłľ": 2110,
      "ê°ľìĿĺ": 2111,
      "tal": 2112,
      "ĠëĶ°ë¥¸": 2113,
      "íĻķ": 2114,
      "ĠìĪĺì¤Ģ": 2115,
      "Ġì¹´": 2116,
      "Ġgu": 2117,
      "io": 2118,
      "Ġschool": 2119,
      "Ġê°ĲìĨĮ": 2120,
      "Ġsol": 2121,
      "ì§ĢëĬĶ": 2122,
      "Ġocc": 2123,
      "Ġì§Ħíĸī": 2124,
      "ĠëĮĢìĥģ": 2125,
      "ì¡Į": 2126,
      "ability": 2127,
      "Ġemb": 2128,
      "ìłķìĿĦ": 2129,
      "Ġlong": 2130,
      "Ġsec": 2131,
      "ĠìķĬëĬĶ": 2132,
      "Ġmodel": 2133,
      "Ġchang": 2134,
      "Ġinterest": 2135,
      "ĠíĺķìĦ±": 2136,
      "Ġê¸°ëĬ¥": 2137,
      "Acc": 2138,
      "ëĭ¤ê³ł": 2139,
      "ĠìľĦì¹ĺ": 2140,
      "ê²łìĬµëĭĪëĭ¤": 2141,
      "Ġmany": 2142,
      "ìĤ¬ìĿĺ": 2143,
      "iel": 2144,
      "par": 2145,
      "Ġë³´ê³ł": 2146,
      "Ġëħ¼": 2147,
      "Ġchange": 2148,
      "ind": 2149,
      "Ġíĺĳ": 2150,
      "Ġday": 2151,
      "viron": 2152,
      "Ġvari": 2153,
      "ëĭ´": 2154,
      "por": 2155,
      "Ġì´Ŀ": 2156,
      "Ġrelated": 2157,
      "ëł¥ìĿĦ": 2158,
      "Ġpower": 2159,
      "ina": 2160,
      "ĠëĿ": 2161,
      "Ġconst": 2162,
      "ification": 2163,
      "Ġlow": 2164,
      "ĠìĥĿìĤ°": 2165,
      "ì¶©": 2166,
      "Ġwhile": 2167,
      "Ġprog": 2168,
      "ëĤ¬": 2169,
      "ë¡ľìļ´": 2170,
      "read": 2171,
      "Ġvery": 2172,
      "Ġê¹": 2173,
      "ìĿµ": 2174,
      "Ġcharacter": 2175,
      "Ġident": 2176,
      "Ġì²ĺë¦¬": 2177,
      "According": 2178,
      "Ġsens": 2179,
      "ute": 2180,
      "ì°©": 2181,
      "ively": 2182,
      "gest": 2183,
      "ouse": 2184,
      "rop": 2185,
      "Ġprot": 2186,
      "Ġê´ĳ": 2187,
      "Ġimage": 2188,
      "You": 2189,
      "ì¦Ī": 2190,
      "arm": 2191,
      "íĬ¹": 2192,
      "'m": 2193,
      "Ġê°ľë°ľ": 2194,
      "ëĤł": 2195,
      "Ġmat": 2196,
      "Ġyears": 2197,
      "Ġtem": 2198,
      "ages": 2199,
      "uation": 2200,
      "ĠìĦ±ìŀ¥": 2201,
      "Ġdel": 2202,
      "Ġhig": 2203,
      "ord": 2204,
      "Ġcells": 2205,
      "crib": 2206,
      "ìĭľê°Ħ": 2207,
      "Ġcurrent": 2208,
      "illion": 2209,
      "Ġdirect": 2210,
      "Ġhum": 2211,
      "hes": 2212,
      "íļį": 2213,
      "les": 2214,
      "ĠëĤ®": 2215,
      "Ġstate": 2216,
      "ìĤ¬ë¥¼": 2217,
      "Ġìŀĺ": 2218,
      "ogn": 2219,
      "ĠëĨĴìĿĢ": 2220,
      "11": 2221,
      "Ġperiod": 2222,
      "Ġreceiv": 2223,
      "osp": 2224,
      "ft": 2225,
      "Ġë°Ŀ": 2226,
      "Ġplay": 2227,
      "Ġimpro": 2228,
      "ivid": 2229,
      "Ġcompanies": 2230,
      "Ġcre": 2231,
      "ìĸ´ìļĶ": 2232,
      "Ġ50": 2233,
      "Ġhis": 2234,
      "Ġìĥģíĥľ": 2235,
      "ocial": 2236,
      "vironment": 2237,
      "Ġincrease": 2238,
      "Ġeducation": 2239,
      "Ġê²Į": 2240,
      "min": 2241,
      "ale": 2242,
      "Ġdetermin": 2243,
      "ĠìĿ´ë¯¸": 2244,
      "ured": 2245,
      "Ġleg": 2246,
      "ancial": 2247,
      "Ġì¡´ìŀ¬": 2248,
      "Ġë©´": 2249,
      "Ġdevelopment": 2250,
      "ì£¼ìĿĺ": 2251,
      "ĠëıĮ": 2252,
      "Ġmonth": 2253,
      "orth": 2254,
      "Ġamount": 2255,
      "ìĭľíĤ¤": 2256,
      "Ġcondition": 2257,
      "rodu": 2258,
      "However": 2259,
      "Ġwater": 2260,
      "Ġ16": 2261,
      "Ġestabl": 2262,
      "Ġdid": 2263,
      "Ġhow": 2264,
      "Ġì¹ĺë£Į": 2265,
      "Ġvir": 2266,
      "Ġrest": 2267,
      "Ġíİ¸": 2268,
      "Ġdem": 2269,
      "ê¸°ìĹĲ": 2270,
      "agement": 2271,
      "ication": 2272,
      "ss": 2273,
      "Ġnon": 2274,
      "Ġìłľìĸ´": 2275,
      "Ġpublic": 2276,
      "íķĺë©°": 2277,
      "Ġwhether": 2278,
      "fer": 2279,
      "Ġì¶Ķê°Ģ": 2280,
      "Â°": 2281,
      "Ġexpress": 2282,
      "Ġresearch": 2283,
      "ired": 2284,
      "ìķħ": 2285,
      "eration": 2286,
      "Ġë¯¼": 2287,
      "ision": 2288,
      "yl": 2289,
      "ĠìĿĺë¯¸": 2290,
      "Ġê°ĸ": 2291,
      "ìŀĲë¥¼": 2292,
      "aking": 2293,
      "ined": 2294,
      "ë¡ľë¶ĢíĦ°": 2295,
      "Ġëł": 2296,
      "ĠíĶĦ": 2297,
      "mit": 2298,
      "Ġlocal": 2299,
      "urn": 2300,
      "wn": 2301,
      "Ġhy": 2302,
      "Ġtreatment": 2303,
      "ëĲĲ": 2304,
      "Ġdesign": 2305,
      "ĠíĥĢ": 2306,
      "Ġintern": 2307,
      "Ġhealth": 2308,
      "Ġë§ŀ": 2309,
      "ĠíĨł": 2310,
      "Ġíģ°": 2311,
      "Łģ": 2312,
      "ìĿĮìĿĦ": 2313,
      "face": 2314,
      "ork": 2315,
      "Ġpossible": 2316,
      "Ġear": 2317,
      "Ġê±": 2318,
      "Ġwant": 2319,
      "ĠìĥĿê°ģ": 2320,
      "Ġëĭ¤ìĿĮ": 2321,
      "ict": 2322,
      "ì§ķ": 2323,
      "ê·¸ëŁ¬": 2324,
      "Ġequ": 2325,
      "ife": 2326,
      "Ġê°ĻìĿ´": 2327,
      "Ġboth": 2328,
      "Ġpay": 2329,
      "ëĨ": 2330,
      "ĠAct": 2331,
      "Ġsit": 2332,
      "Ġì²Ń": 2333,
      "Ġsam": 2334,
      "Ġconduct": 2335,
      "Ġlim": 2336,
      "Ġlarge": 2337,
      "icult": 2338,
      "ëªħìĿĺ": 2339,
      "ĠíĻĺê²½": 2340,
      "Ġapplic": 2341,
      "ëłĩ": 2342,
      "ë°±ì§Ī": 2343,
      "uss": 2344,
      "reen": 2345,
      "Ġexpl": 2346,
      "Ġlook": 2347,
      "ìĿ´ê³ł": 2348,
      "Ġgra": 2349,
      "ĠëĲł": 2350,
      "Ġë¹ĦêµĲ": 2351,
      "ĠìŀĪìĿĦ": 2352,
      "ently": 2353,
      "Ġpolic": 2354,
      "į¨": 2355,
      "ĠìķĮëł¤": 2356,
      "½ĺ": 2357,
      "Ġjust": 2358,
      "Ġ18": 2359,
      "Ġê¸°ì¤Ģ": 2360,
      "Ġì§ĢëĤľ": 2361,
      "Ġadd": 2362,
      "Ġìĭľìŀĳ": 2363,
      "ë§ģ": 2364,
      "Ġcontin": 2365,
      "ë¦¬ë¥¼": 2366,
      "ished": 2367,
      "Ġparticip": 2368,
      "Ġinput": 2369,
      "ëĤ¨": 2370,
      "Ġlast": 2371,
      "aterial": 2372,
      "ful": 2373,
      "ĠìĤ¬ìļ©íķĺìĹ¬": 2374,
      "ëĥ": 2375,
      "Ġgrowth": 2376,
      "Ġnecess": 2377,
      "ox": 2378,
      "inal": 2379,
      "lected": 2380,
      "Ġhel": 2381,
      "Ġmake": 2382,
      "Ġìĺ¬": 2383,
      "Ġë³´ìĹ¬": 2384,
      "Ġwithout": 2385,
      "Ġimportant": 2386,
      "ĠìĥģíĻ©": 2387,
      "Ġwithin": 2388,
      "ìĪĺìĿĺ": 2389,
      "Ġë²Ķ": 2390,
      "ness": 2391,
      "Ġcountries": 2392,
      "Ġlear": 2393,
      "Ġtotal": 2394,
      "Ġwon": 2395,
      "Ġsocial": 2396,
      "ination": 2397,
      "Ġenvironment": 2398,
      "Ġbas": 2399,
      "ëĭĺ": 2400,
      "Ġbefore": 2401,
      "lear": 2402,
      "Ġplan": 2403,
      "Ġrev": 2404,
      "Ġíķ´ëĭ¹": 2405,
      "Wh": 2406,
      "Ġlay": 2407,
      "ĠìĹħ": 2408,
      "ĠìķĦëĭĪëĿ¼": 2409,
      "air": 2410,
      "ys": 2411,
      "Ġì¤Ħ": 2412,
      "Ġíĸ¥": 2413,
      "ĠìŀĪìľ¼ë©°": 2414,
      "Ġadv": 2415,
      "inc": 2416,
      "Ġaff": 2417,
      "Ġconn": 2418,
      "ìĬ¹": 2419,
      "Ġthink": 2420,
      "Ġve": 2421,
      "Ġcontain": 2422,
      "Ġrelations": 2423,
      "Ġì¤Ģ": 2424,
      "Ġembod": 2425,
      "ides": 2426,
      "For": 2427,
      "Ġ13": 2428,
      "Ġrecogn": 2429,
      "ìĿ´ëŁ¬ìĬ¤": 2430,
      "ëıĦê°Ģ": 2431,
      "Ġprote": 2432,
      "íħĮë¦¬ìķĦ": 2433,
      "Ġhand": 2434,
      "ìŁģ": 2435,
      "Ġret": 2436,
      "ately": 2437,
      "li": 2438,
      "Ġsmall": 2439,
      "Ġmaterial": 2440,
      "Ġstruct": 2441,
      "ĠìĹĨëĬĶ": 2442,
      "ustom": 2443,
      "Ġëĭ´": 2444,
      "Ġêµ¬ì¡°": 2445,
      "Ġbr": 2446,
      "Ġë¯¸êµŃ": 2447,
      "ĠëĪ": 2448,
      "Ġget": 2449,
      "action": 2450,
      "Ġëĵ¤ìĸ´": 2451,
      "Ġke": 2452,
      "ª½": 2453,
      "ĠìĦ¸ê³Ħ": 2454,
      "Ġë³¼": 2455,
      "100": 2456,
      "ĠíħĮ": 2457,
      "Ġconfirmed": 2458,
      "Ġservice": 2459,
      "eg": 2460,
      "Ġì§ĢìĽĲ": 2461,
      "Ġregion": 2462,
      "ĠìĿ´ëŁ¬íķľ": 2463,
      "Ġê·Ģ": 2464,
      "Ġìĭ¶": 2465,
      "Ġì¸¡ìłķ": 2466,
      "ĠìĤ¬ìĹħ": 2467,
      "Ġsubject": 2468,
      "Ġfore": 2469,
      "Ġíĳľìĭľ": 2470,
      "Ġoccur": 2471,
      "Ġhelp": 2472,
      "Ġdifficult": 2473,
      "Ġë¡": 2474,
      "other": 2475,
      "Ġcal": 2476,
      "Ġìłķë¶Ģ": 2477,
      "ê·ľ": 2478,
      "Ġë¶Ģë¶Ħ": 2479,
      "Ġma": 2480,
      "ë¶Ī": 2481,
      "ìłĢíĿ¬": 2482,
      "Ġincreased": 2483,
      "Ġprof": 2484,
      "Ġë§¤ìļ°": 2485,
      "Ġìłķë³´ë¥¼": 2486,
      "Ġreal": 2487,
      "Ġsince": 2488,
      "apan": 2489,
      "Ġlead": 2490,
      "ëį¸": 2491,
      "Al": 2492,
      "ody": 2493,
      "ìį¨": 2494,
      "ìµľ": 2495,
      "ëŀ¨": 2496,
      "Ġcontent": 2497,
      "ìĸµ": 2498,
      "ĠìĿ¼ë°ĺ": 2499,
      "Ġdoes": 2500,
      "Ġ14": 2501,
      "ĠëĤĺíĥĢëĤ¬": 2502,
      "Ġfil": 2503,
      "ering": 2504,
      "ward": 2505,
      "ë´": 2506,
      "ĠëĤ´ìļ©": 2507,
      "Ġabove": 2508,
      "Ġstudies": 2509,
      "Ġmanagement": 2510,
      "Ġcour": 2511,
      "Ġìĭłíĺ¸": 2512,
      "Ġproper": 2513,
      "Ġprevious": 2514,
      "Ġiss": 2515,
      "own": 2516,
      "Ġrat": 2517,
      "Ġê°ģê°ģ": 2518,
      "ë¡ľëĤĺ": 2519,
      "hib": 2520,
      "Ġì¤ĳêµŃ": 2521,
      "Ġobject": 2522,
      "ìľµ": 2523,
      "ì§¸": 2524,
      "Ġvol": 2525,
      "Ġris": 2526,
      "Ġìĸ¸": 2527,
      "Ġê¶Į": 2528,
      "Ġprom": 2529,
      "Ġìĭľìŀ¥": 2530,
      "ĠíĺĪ": 2531,
      "ee": 2532,
      "ĠíĮĲëĭ¨": 2533,
      "Ġëĭ¨ë°±ì§Ī": 2534,
      "ĠìĿ´ë£¨": 2535,
      "Ġê´Ģë¦¬": 2536,
      "ìĿ´íĬ¸": 2537,
      "Ġanalyz": 2538,
      "ĠìłĢíĿ¬": 2539,
      "Ġcall": 2540,
      "Ġcost": 2541,
      "Ġstore": 2542,
      "Ġimm": 2543,
      "Ġav": 2544,
      "Ġstart": 2545,
      "Ġdise": 2546,
      "Ġsignal": 2547,
      "ĠìĿ´íĽĦ": 2548,
      "Ġë°ĺìĿĳ": 2549,
      "ì¸ł": 2550,
      "ividual": 2551,
      "ĠìĪľ": 2552,
      "íıī": 2553,
      "ëŀĳ": 2554,
      "Ġperformance": 2555,
      "cribed": 2556,
      "ĠíĻľëıĻ": 2557,
      "ĠíĻľìļ©": 2558,
      "ì¹ĺëĬĶ": 2559,
      "Ġstand": 2560,
      "Ġcustom": 2561,
      "íĪ¬": 2562,
      "ĠìķĬìĿĢ": 2563,
      "Ġprovide": 2564,
      "Ġì°¾": 2565,
      "ĠíĬ¸": 2566,
      "ìĿ´ìĹĲ": 2567,
      "ìĥģìĿĦ": 2568,
      "Ġpri": 2569,
      "Ġë¶ģ": 2570,
      "ĠìĹ°ê²°": 2571,
      "Ġthen": 2572,
      "ë¶ģ": 2573,
      "ĠìĪĺëıĦ": 2574,
      "ilar": 2575,
      "Ġmeet": 2576,
      "Ġwhat": 2577,
      "Ġpred": 2578,
      "ĠëĲľëĭ¤": 2579,
      "On": 2580,
      "Ġëģ": 2581,
      "ê·¸ëŀ¨": 2582,
      "Ġindic": 2583,
      "Ġì¡°ìĤ¬": 2584,
      "ë¦´": 2585,
      "íķĺìĺĢ": 2586,
      "Ġsug": 2587,
      "irc": 2588,
      "Ġeconomic": 2589,
      "Ġown": 2590,
      "ì³": 2591,
      "íĮħ": 2592,
      "Ġchild": 2593,
      "ĠìŀĪìĹĪëĭ¤": 2594,
      "ings": 2595,
      "Ġíķ©ëĭĪëĭ¤": 2596,
      "ĠìķĬìķĺëĭ¤": 2597,
      "Ġdep": 2598,
      "ples": 2599,
      "Ġnecessary": 2600,
      "ĠAr": 2601,
      "Ġë°Ŀíĺ": 2602,
      "gu": 2603,
      "ë¯": 2604,
      "ëĿ¼ê³ł": 2605,
      "Ġprice": 2606,
      "ĠëĿ¼": 2607,
      "ons": 2608,
      "ential": 2609,
      "ë£¹": 2610,
      "Ġassoci": 2611,
      "Ġreason": 2612,
      "Ġfac": 2613,
      "led": 2614,
      "Ġfinancial": 2615,
      "ission": 2616,
      "ëŀľ": 2617,
      "Ġê³¼ìłķ": 2618,
      "Ġíģ´": 2619,
      "©ëĭĪëĭ¤": 2620,
      "Ġspecific": 2621,
      "ulated": 2622,
      "ĠìĥĪë¡ľìļ´": 2623,
      "Ġindividual": 2624,
      "Ġeval": 2625,
      "imes": 2626,
      "Ġcases": 2627,
      "ath": 2628,
      "ospital": 2629,
      "Ġteam": 2630,
      "'ll": 2631,
      "ield": 2632,
      "outh": 2633,
      "ĠëłĪ": 2634,
      "ĠCO": 2635,
      "ê¸°ê°Ģ": 2636,
      "Ġconsum": 2637,
      "Ġstudents": 2638,
      "Ġê·łì£¼": 2639,
      "Ġart": 2640,
      "Ġann": 2641,
      "ë°Ľ": 2642,
      "ope": 2643,
      "Ġview": 2644,
      "Ġopen": 2645,
      "Ġê´Ģíķľ": 2646,
      "ronic": 2647,
      "Ġtre": 2648,
      "ify": 2649,
      "ë¹": 2650,
      "Ġobs": 2651,
      "ior": 2652,
      "ì²´ìĿĺ": 2653,
      "ogen": 2654,
      "Ġworld": 2655,
      "ĠìĹ¬ë¶Ģ": 2656,
      "ìĭĿìĿĦ": 2657,
      "Ġstat": 2658,
      "Ġëĭ¨ê³Ħ": 2659,
      "Ġdom": 2660,
      "ters": 2661,
      "Ġsal": 2662,
      "Ġreported": 2663,
      "Ġcaus": 2664,
      "icro": 2665,
      ",\"": 2666,
      "ĠìĿ¼ë¶Ģ": 2667,
      "Ġìŀħëł¥": 2668,
      "osed": 2669,
      "ID": 2670,
      "ĠìĹĨëĭ¤": 2671,
      "ëĮĢë¡ľ": 2672,
      "ë¨¸": 2673,
      "lection": 2674,
      "ĺíĶĮ": 2675,
      "ĠëıĻìĿ¼": 2676,
      "ëĬĶëį°": 2677,
      "Ġintrodu": 2678,
      "ëħĲ": 2679,
      "Ġì»¤": 2680,
      "ug": 2681,
      "Ġê±¸": 2682,
      "Ġhigher": 2683,
      "Ġëĵ±ìĿĦ": 2684,
      "Ġmult": 2685,
      "Ġjud": 2686,
      "urther": 2687,
      "ĠíĻĺìŀĲ": 2688,
      "ìĿ´ë¥¼": 2689,
      "ĠíĺĦìŀ¬": 2690,
      "Ġë°°ìĸĳ": 2691,
      "ëģ": 2692,
      "ĠJapan": 2693,
      "Ġfam": 2694,
      "ĠChina": 2695,
      "ĠëĶ°ë¥´": 2696,
      "į¼": 2697,
      "Ġë§Įëĵ¤": 2698,
      "Ġtype": 2699,
      "ìª½": 2700,
      "Ġdon": 2701,
      "Ġthose": 2702,
      "ëŁ½": 2703,
      "Ġìľłì§Ģ": 2704,
      "ral": 2705,
      "Ġê³łëł¤": 2706,
      "ĠìĹ¬ëŁ¬": 2707,
      "ĠDNA": 2708,
      "Ġlower": 2709,
      "ator": 2710,
      "line": 2711,
      "IG": 2712,
      "bers": 2713,
      "Ġhuman": 2714,
      "Ġparticular": 2715,
      "Ġinvention": 2716,
      "Ġsee": 2717,
      "Ġmuch": 2718,
      "Ġbacter": 2719,
      "Ġplace": 2720,
      "ī´": 2721,
      "ĠíĻľìĦ±": 2722,
      "ym": 2723,
      "ĠìłĢìŀ¥": 2724,
      "ë²Ķ": 2725,
      "sc": 2726,
      "Ġê¸°ë°ĺ": 2727,
      "Ġagainst": 2728,
      "Ġprogram": 2729,
      "ex": 2730,
      "Ġtake": 2731,
      "Ġeas": 2732,
      "íĥģ": 2733,
      "agn": 2734,
      "Ġdays": 2735,
      "Ġgeneral": 2736,
      "Ġlight": 2737,
      "ì¹¨": 2738,
      "Ġrepres": 2739,
      "Ġconcent": 2740,
      "ining": 2741,
      "ually": 2742,
      "Ġíı¬íķ¨íķł": 2743,
      "Ġoperation": 2744,
      "Ġìłķì±ħ": 2745,
      "ìĭľìķĦ": 2746,
      "Ġfour": 2747,
      "ĠíĦ": 2748,
      "Ġê³łê°Ŀ": 2749,
      "yeong": 2750,
      "Ġlayer": 2751,
      "Ġ24": 2752,
      "Ġproduction": 2753,
      "Ġìķŀ": 2754,
      "ìĺ¬": 2755,
      "rit": 2756,
      "Ġexist": 2757,
      "Ġpass": 2758,
      "Ġcompet": 2759,
      "Ġìº": 2760,
      "respon": 2761,
      "lied": 2762,
      "ìĽĢ": 2763,
      "ìĤ¬ëĬĶ": 2764,
      "ë¶Ģë¶Ħ": 2765,
      "Ġrelationship": 2766,
      "ìĿ¸ìĿĺ": 2767,
      "ìķķ": 2768,
      "Ġindustry": 2769,
      "jor": 2770,
      "Ġneg": 2771,
      "Ġpop": 2772,
      "ĠìĤ°ìĹħ": 2773,
      "Ġacid": 2774,
      "ìĿ´ëĿ¼ëĬĶ": 2775,
      "Ġlife": 2776,
      "Ġtri": 2777,
      "Ġëª¨ëį¸": 2778,
      "Ġë¡ľ": 2779,
      "less": 2780,
      "istics": 2781,
      "ĠëĴ": 2782,
      "ìĹĲìĦľëıĦ": 2783,
      "Ġobtain": 2784,
      "íĻĶë¥¼": 2785,
      "atic": 2786,
      "Ġ25": 2787,
      "ĠNorth": 2788,
      "Ġê²°íķ©": 2789,
      "Ġmedical": 2790,
      "ĠìľłìĤ¬": 2791,
      "ĠìŀĪëĭ¤ëĬĶ": 2792,
      "urance": 2793,
      "icial": 2794,
      "Ġìĸ»": 2795,
      "Ġì¦": 2796,
      "Ġcirc": 2797,
      "cing": 2798,
      "Ġmust": 2799,
      "Yes": 2800,
      "15": 2801,
      "Ġamong": 2802,
      "ives": 2803,
      "ëıĦìĿĺ": 2804,
      "Ġappro": 2805,
      "ĠëĤĺíĥĢëĤ¬ëĭ¤": 2806,
      "Ġcontact": 2807,
      "ĠìĹŃíķł": 2808,
      "ëĺĲíķľ": 2809,
      "íĦ´": 2810,
      "ĠMin": 2811,
      "ĠìĤ¬ìļ©ìŀĲ": 2812,
      "Ġ17": 2813,
      "Ġpar": 2814,
      "Ġsubst": 2815,
      "ended": 2816,
      "Ġperformed": 2817,
      "ëĦĲ": 2818,
      "ì»¤": 2819,
      "Ġsimilar": 2820,
      "Ġì§ģìłĳ": 2821,
      "íĥĦ": 2822,
      "¿Ĳ": 2823,
      "Ġì°¸ìĹ¬": 2824,
      "lu": 2825,
      "Ġë³´íĺ¸": 2826,
      "Ġtechnology": 2827,
      "ĠìĥĺíĶĮ": 2828,
      "An": 2829,
      "Ġback": 2830,
      "Ġíĺķíĥľ": 2831,
      "work": 2832,
      "Ġë¶Ħë¦¬": 2833,
      "íķĺëıĦë¡Ŀ": 2834,
      "Ġnow": 2835,
      "íĺĪ": 2836,
      "Ġíĥľ": 2837,
      "Ġì°½": 2838,
      "ìĤ¬ê°Ģ": 2839,
      "íķĻìłģ": 2840,
      "íķĺì§Ģë§Į": 2841,
      "ëĿ¼ëĬĶ": 2842,
      "Ġspecial": 2843,
      "way": 2844,
      "ìľ¼ë¡ľìį¨": 2845,
      "Ġport": 2846,
      "ìĿ¸ìĿ´": 2847,
      "ems": 2848,
      "ĠìĿ¸ìĭĿ": 2849,
      "erc": 2850,
      "Ġcontract": 2851,
      "Ġcare": 2852,
      "Ġevery": 2853,
      "ĠìłĦìŀĲ": 2854,
      "Ġunderst": 2855,
      "Ġë°ľê²¬": 2856,
      "cer": 2857,
      "ë²Į": 2858,
      "ë²ł": 2859,
      "Ġwee": 2860,
      "ìļ°ë¦¬": 2861,
      "Ġtermin": 2862,
      "ï¬": 2863,
      "Ġê°Ĵ": 2864,
      "ivers": 2865,
      "Ġcorrespon": 2866,
      "ë¯Ģë¡ľ": 2867,
      "ĠëĶ°ë¥´ë©´": 2868,
      "Ġmus": 2869,
      "Ġtemper": 2870,
      "ĠìŀĪëĭ¤ê³ł": 2871,
      "ĠìĦ¼": 2872,
      "Ġobserv": 2873,
      "Ġsuggest": 2874,
      "He": 2875,
      "Ġíķĺê³ł": 2876,
      "ĠìľĦíĹĺ": 2877,
      "Ġexpected": 2878,
      "íķĺë©´ìĦľ": 2879,
      "ĠíķĻìĥĿ": 2880,
      "Ġnet": 2881,
      "ê¸°ëĬĶ": 2882,
      "pr": 2883,
      "Ġshown": 2884,
      "60": 2885,
      "Ġstandard": 2886,
      "Ġapplication": 2887,
      "Ġpolicy": 2888,
      "¤íĬ¸": 2889,
      "ëŀµ": 2890,
      "Ġprovided": 2891,
      ").": 2892,
      "ìĸ¸": 2893,
      "Ġê´Ģì°°": 2894,
      "¨ìĸ´": 2895,
      "Ġ40": 2896,
      "ological": 2897,
      "200": 2898,
      "Ġactivity": 2899,
      "Ġcalc": 2900,
      "ëıĦë¡ľ": 2901,
      "ë¬¼ìĿĦ": 2902,
      "eng": 2903,
      "ten": 2904,
      "ĠìĿ´ë£¨ìĸ´": 2905,
      "ĠìĤ¬ìĭ¤": 2906,
      "ê·Ģ": 2907,
      "ìĭľì¼": 2908,
      "Ġmajor": 2909,
      "Ġìĭ¤íĹĺ": 2910,
      "ĠìŀĪëıĦë¡Ŀ": 2911,
      "Ġisol": 2912,
      "Ġembodiment": 2913,
      "Ġì½Ķë¡ľëĤĺ": 2914,
      "ner": 2915,
      "day": 2916,
      "ëĭĪê¹Į": 2917,
      "Ġìłľìĭľ": 2918,
      "Ġê¸°ê°Ħ": 2919,
      "ìĤ": 2920,
      "CR": 2921,
      "ĠìłĦì²´": 2922,
      "ule": 2923,
      "Ġì¤ĳìļĶíķľ": 2924,
      "Ġì¶ķ": 2925,
      "Ġlit": 2926,
      "ĠìĿ´íķ´": 2927,
      "rel": 2928,
      "Ġterm": 2929,
      "ì·¨": 2930,
      "Ġallow": 2931,
      "ĠìĿ´ìłĦ": 2932,
      "asing": 2933,
      "Ġline": 2934,
      "ê¸¸": 2935,
      "ĠìŀĪê³ł": 2936,
      "ense": 2937,
      "ĠíĶĦë¡ľê·¸ëŀ¨": 2938,
      "Ġway": 2939,
      "Ġbuil": 2940,
      "Ġê³µê¸ī": 2941,
      "įëĭĪëĭ¤": 2942,
      "Ġìļ´ìĺģ": 2943,
      "ane": 2944,
      "Ġìĭ¤ìĭľìĺĪ": 2945,
      "ern": 2946,
      "oint": 2947,
      "ì¹Ļ": 2948,
      "Ġê°ĢëĬ¥íķľ": 2949,
      "ì¡Įëĭ¤": 2950,
      "ĠíĦ°": 2951,
      "atory": 2952,
      "ìķł": 2953,
      "Ġbro": 2954,
      "Ġactivities": 2955,
      "ret": 2956,
      "íĶĮëłĪìĿ´": 2957,
      "Ġì§ĢìĨį": 2958,
      "uture": 2959,
      "ìłľë¥¼": 2960,
      "¸ëĭ¤": 2961,
      "ĠëĮĢìĿĳ": 2962,
      "iven": 2963,
      "Ġposition": 2964,
      "13": 2965,
      "íģ´": 2966,
      "ffic": 2967,
      "Ġìī": 2968,
      "ĠíĴ": 2969,
      "ìĭłìĿĺ": 2970,
      "Ġformed": 2971,
      "ĠìĦ¤ìłķ": 2972,
      "Ġdecre": 2973,
      "Ġtar": 2974,
      "Ġbel": 2975,
      "Ġrepresent": 2976,
      "After": 2977,
      "Ġcompared": 2978,
      "ëĭĮ": 2979,
      "ĠÎ": 2980,
      "though": 2981,
      "urity": 2982,
      "Ġê·¸ë£¹": 2983,
      "ilities": 2984,
      "raph": 2985,
      "Ġempl": 2986,
      "Ġnext": 2987,
      "Ġstr": 2988,
      "ìĿ´ë©°": 2989,
      "Ġmean": 2990,
      "Ġìłľíķľ": 2991,
      "heon": 2992,
      "Ġëĵ±ìĿĺ": 2993,
      "ìħĶ": 2994,
      "Ġì£¼ìļĶ": 2995,
      "ticle": 2996,
      "Ġdam": 2997,
      "ird": 2998,
      "Ġrespect": 2999,
      "Ġmicro": 3000,
      "Ġresponse": 3001,
      "ìĪľ": 3002,
      "ĠíıĲ": 3003,
      "ĠìłĦë¬¸": 3004,
      "ë¡ľìĦľ": 3005,
      "ĠìŀĪìľ¼": 3006,
      "Ġë¸Į": 3007,
      "To": 3008,
      "Ġtour": 3009,
      "ê·¸ëŁ¬ëĤĺ": 3010,
      "ĠìĿĺíķľ": 3011,
      "ert": 3012,
      "ĠìĹ¼": 3013,
      "Ġë¨¹": 3014,
      "Ġhead": 3015,
      "ë¸Ķ": 3016,
      "Ġshowed": 3017,
      "Ġpromot": 3018,
      "That": 3019,
      "mer": 3020,
      "ìłĲìĿĦ": 3021,
      "BBB": 3022,
      "These": 3023,
      "ĠìĨĮë¹Ħ": 3024,
      "Ġì¹¨": 3025,
      "Ġë§İìĿ´": 3026,
      "omen": 3027,
      "At": 3028,
      "Ġcheck": 3029,
      "Ġê·ľìłķ": 3030,
      "Ġsurface": 3031,
      "iple": 3032,
      "ëıĦëĬĶ": 3033,
      "ëĶ°": 3034,
      "ĠíķĻìĬµ": 3035,
      "ìĦ±ìĿĢ": 3036,
      "Ġì¤ĳìĭ¬": 3037,
      "Ġë°©ìĭĿ": 3038,
      "Ġair": 3039,
      "ĠìĿ´ëıĻ": 3040,
      "Ġêµ°": 3041,
      "ĠìĿĳ": 3042,
      "ĠíĹĪ": 3043,
      "Ġlo": 3044,
      "ìĿ´ëĵľ": 3045,
      "ĠìĿ´ìľł": 3046,
      "Ġaround": 3047,
      "íĺĳ": 3048,
      "Ġbody": 3049,
      "Ġì¡°ê±´": 3050,
      "erence": 3051,
      "ëĲĲëĭ¤": 3052,
      "Ġê¸ī": 3053,
      "Ġdistrib": 3054,
      "Ġproject": 3055,
      "ĠêµŃìłľ": 3056,
      "Ġsequ": 3057,
      "oul": 3058,
      "ĠíĬ¹ìłķ": 3059,
      "Ġê±´ê°ķ": 3060,
      "Ġ199": 3061,
      "Ġdiscuss": 3062,
      "Ġfuture": 3063,
      "Ġelectronic": 3064,
      "ional": 3065,
      "ruction": 3066,
      "Ġdri": 3067,
      "not": 3068,
      "ists": 3069,
      "Ġsk": 3070,
      "Ġben": 3071,
      "Ġheld": 3072,
      "ë¦½ëĭĪëĭ¤": 3073,
      "Ġconditions": 3074,
      "hold": 3075,
      "Ġreceived": 3076,
      "Ġcountry": 3077,
      "Ġë°ĿíĺĶëĭ¤": 3078,
      "Ġdescribed": 3079,
      "Ġlot": 3080,
      "ĠìļĶêµ¬": 3081,
      "arent": 3082,
      "ergy": 3083,
      "ĠíĸĪëĭ¤": 3084,
      "Ġì¶Ķì¶ľ": 3085,
      "Since": 3086,
      "Ġevent": 3087,
      "Ġapplied": 3088,
      "iqu": 3089,
      "Ġpositive": 3090,
      "Ġfre": 3091,
      "Ġê°Ģê²©": 3092,
      "ĠUnited": 3093,
      "Ġfurther": 3094,
      "Ġbi": 3095,
      "ĠìĿ¸íĦ°": 3096,
      "íħĲ": 3097,
      "ìĦ±ìĹĲ": 3098,
      "VID": 3099,
      "Ġì¡°ì§ģ": 3100,
      "Ġinvestig": 3101,
      "abor": 3102,
      "Ġhist": 3103,
      "Ġê°ĲìĤ¬": 3104,
      "uro": 3105,
      "Ġleast": 3106,
      "ìĪĺë¥¼": 3107,
      "ëł¥ìĿ´": 3108,
      "ĠìķĶ": 3109,
      "ĠíĪ¬ìŀĲ": 3110,
      "Ġì§Ģë°©": 3111,
      "Ġstructure": 3112,
      "Ġtarget": 3113,
      "Ġinternational": 3114,
      "Ġpath": 3115,
      "Ġê²½íĹĺ": 3116,
      "Ġincluded": 3117,
      "Ġê²Ģì¶ľ": 3118,
      "Ġì±ħ": 3119,
      "omet": 3120,
      "Ġroom": 3121,
      "ì¹ĺë¥¼": 3122,
      "Ġê´Ģìĭ¬": 3123,
      "ĠìĿ´ë¥¼": 3124,
      "Ġimplement": 3125,
      "Ġtyp": 3126,
      "Ġë°±": 3127,
      "Ġless": 3128,
      "Ġrisk": 3129,
      "ĠPro": 3130,
      "ì³Ĳ": 3131,
      "Ġjudg": 3132,
      "ìĿ´ê°Ģ": 3133,
      "ìŀ¥ìĿĦ": 3134,
      "Ġë°©íĸ¥": 3135,
      "Ġsepar": 3136,
      "ìĦ±ê³¼": 3137,
      "ì§ĢìĹĲ": 3138,
      "ave": 3139,
      "gen": 3140,
      "ances": 3141,
      "Ġhere": 3142,
      "Ġmeans": 3143,
      "hy": 3144,
      "ĠìĿ´ìĸ´": 3145,
      "ju": 3146,
      "ëĵ¤ìĹĲê²Į": 3147,
      "70": 3148,
      "ĠëĺĲíķľ": 3149,
      "ëĤĺëĬĶ": 3150,
      "ĠëĮĢíĳľ": 3151,
      "Ġhospital": 3152,
      "ìłľë¡ľ": 3153,
      "80": 3154,
      "Ġrequest": 3155,
      "Ġcy": 3156,
      "ê²ĥìĿĢ": 3157,
      "ode": 3158,
      "Ġmut": 3159,
      "ì±Ħ": 3160,
      "ĠëĶĶìĬ¤": 3161,
      "Ġhouse": 3162,
      "ĠíĽ": 3163,
      "ì²´ë¥¼": 3164,
      "hor": 3165,
      "Ġflow": 3166,
      "ĠNational": 3167,
      "Ġì½ĺ": 3168,
      "Ġquest": 3169,
      "Ġíŀ": 3170,
      "Ġnational": 3171,
      "Ġstep": 3172,
      "Ġsize": 3173,
      "Ġsaf": 3174,
      "ĠêµŃëĤ´": 3175,
      "Ġplease": 3176,
      "itution": 3177,
      "Ġtemperature": 3178,
      "Ġexc": 3179,
      "do": 3180,
      "ê¸°ìĿĺ": 3181,
      "Ġinsurance": 3182,
      "Ġdirection": 3183,
      "ľ´": 3184,
      "Ġìķł": 3185,
      "Ġassociated": 3186,
      "rated": 3187,
      "ars": 3188,
      "14": 3189,
      "Ġíĺ¼": 3190,
      "Ġë¬¸íĻĶ": 3191,
      "Ġgreat": 3192,
      "minist": 3193,
      "ë¬¼ìĿĺ": 3194,
      "Ġë¸Ķ": 3195,
      "ëĪ": 3196,
      "ĠìĿ¸íķ´": 3197,
      "ger": 3198,
      "ible": 3199,
      "ĠìľłìĿĺ": 3200,
      "izing": 3201,
      "Ġtransfer": 3202,
      "Ġcomb": 3203,
      "Ġhome": 3204,
      "Ġexperience": 3205,
      "Ġfactors": 3206,
      "Ġelectro": 3207,
      "Ġopp": 3208,
      "oss": 3209,
      "ìĭŃ": 3210,
      "imate": 3211,
      "Ġimprove": 3212,
      "ĠëĬ¥": 3213,
      "Ġê³Ħíļį": 3214,
      "anding": 3215,
      "Ġpa": 3216,
      "fact": 3217,
      "ìļ°ë¦¬ëĬĶ": 3218,
      "ìķĮ": 3219,
      "Ġexample": 3220,
      "ĠíķĦìļĶíķľ": 3221,
      "Ġì£¼ë¬¸": 3222,
      "Ġlearning": 3223,
      "ĠìķĪìłĦ": 3224,
      "íĬ¹íŀĪ": 3225,
      "tle": 3226,
      "Ġresist": 3227,
      "Ġstrains": 3228,
      "Ġculture": 3229,
      "Ġsl": 3230,
      "Ġìĸµ": 3231,
      "Ġë¹ł": 3232,
      "Ġpost": 3233,
      "ì½": 3234,
      "Ġëĭ¤ìĭľ": 3235,
      "verage": 3236,
      "Ġfree": 3237,
      "ĠëĴ¤": 3238,
      "Ġcharacteristics": 3239,
      "Ġíıīê·ł": 3240,
      "êµĲìľ¡": 3241,
      "ìĿ¸ìĿĦ": 3242,
      "ĠìµľëĮĢ": 3243,
      "ese": 3244,
      "Ġëĸ": 3245,
      "ĠìĬ¹": 3246,
      "ìĹĶ": 3247,
      "Ġê´Ģëł¨ëĲľ": 3248,
      "Ġscreen": 3249,
      "íĸĪìĬµëĭĪëĭ¤": 3250,
      "ĠíĤ": 3251,
      "Ġoutput": 3252,
      "Ġdetermined": 3253,
      "Ġside": 3254,
      "Ġsus": 3255,
      "Ġaccount": 3256,
      "ï¬ģ": 3257,
      "Ġmove": 3258,
      "land": 3259,
      "ĠìĪĺìĭł": 3260,
      "Ġincome": 3261,
      "ëĶ°ëĿ¼": 3262,
      "Ġsour": 3263,
      "Ġë´": 3264,
      "ìĽĲìĿĺ": 3265,
      "Ġcommunication": 3266,
      "ised": 3267,
      "Ġëĳ": 3268,
      "Ġë²Ħ": 3269,
      "Ġforeign": 3270,
      "Ġchanges": 3271,
      "Ġmedium": 3272,
      "Ġfield": 3273,
      "ìłľê°Ģ": 3274,
      "Ġsituation": 3275,
      "Ġregul": 3276,
      "Ġpurch": 3277,
      "Ġcrit": 3278,
      "Ġread": 3279,
      "Ġdiv": 3280,
      "ìĦ¼": 3281,
      "cell": 3282,
      "Ġìľłíĺķ": 3283,
      "ĠCOVID": 3284,
      "Ġíķµ": 3285,
      "ĠìĿĺë£Į": 3286,
      "hing": 3287,
      "ĠCon": 3288,
      "ìķĶ": 3289,
      "ĠìĹ°êµ¬ëĬĶ": 3290,
      "ĠíĬ¹ì§ķ": 3291,
      "Ġì¶Ķìłķ": 3292,
      "Ġer": 3293,
      "ìĹĲìĦľìĿĺ": 3294,
      "ister": 3295,
      "ĠìļĶìĨĮ": 3296,
      "nam": 3297,
      "Ġë²ł": 3298,
      "Ġê°Ģì§Ģê³ł": 3299,
      "íķĺìĭľ": 3300,
      "ìŀ¥ìĿĢ": 3301,
      "ì¢": 3302,
      "ëĤĺìļĶ": 3303,
      "Ġchildren": 3304,
      "uted": 3305,
      "Ġë°ĶìĿ´ëŁ¬ìĬ¤": 3306,
      "Ġtimes": 3307,
      "ĠComm": 3308,
      "Ġinfection": 3309,
      "Ġpattern": 3310,
      "Ġë°ľìłĦ": 3311,
      "Ġthird": 3312,
      "Ġful": 3313,
      "Ġë¹Ħìļ©": 3314,
      "ëĿ¼ìĿ´": 3315,
      "Ġì¤Ģë¹Ħ": 3316,
      "ĠëĤĺíĥĢëĤ": 3317,
      "ĠìľłìłĦìŀĲ": 3318,
      "Ġê³µê°Ħ": 3319,
      "Ġpract": 3320,
      "Ġdisease": 3321,
      "Ġbeh": 3322,
      "ĠìŀĪìĹĪ": 3323,
      "Ġdown": 3324,
      "ê¸°ìĹħ": 3325,
      "Ġpress": 3326,
      "Ġofficial": 3327,
      "osis": 3328,
      "ìľĦë¥¼": 3329,
      "Ġsym": 3330,
      "mon": 3331,
      "ival": 3332,
      "Ġprevent": 3333,
      "ring": 3334,
      "ìĹ°êµ¬": 3335,
      "Ġtop": 3336,
      "Ġconsidered": 3337,
      "Ġë§ī": 3338,
      "Ġcannot": 3339,
      "Ġrelative": 3340,
      "atural": 3341,
      "Ġher": 3342,
      "Ġprotein": 3343,
      "ole": 3344,
      "ìŀĦìĿĦ": 3345,
      "íķĻêµĲ": 3346,
      "ĠìĤ¬ê±´": 3347,
      "ìĥģìĿĺ": 3348,
      "ĠíĮĲë§¤": 3349,
      "íĮ¨": 3350,
      "ially": 3351,
      "ĠHe": 3352,
      "Ġë§ĲíĸĪëĭ¤": 3353,
      "ĠëĤĺíĥĢëĤ´": 3354,
      "Ġtouch": 3355,
      "Ġìķ¼": 3356,
      "ì²ĺëŁ¼": 3357,
      "Our": 3358,
      "ì§Ģê³ł": 3359,
      "cent": 3360,
      "Ġê³³": 3361,
      "Ġë³ĳìĽĲ": 3362,
      "Ġê¸¸": 3363,
      "Ġservices": 3364,
      "Ġê¸°ì´Ī": 3365,
      "Ġanother": 3366,
      "Ġìµľê·¼": 3367,
      "Ġë°Ģ": 3368,
      "Ġê¸Īìľµ": 3369,
      "Ġstill": 3370,
      "ross": 3371,
      "âĪ": 3372,
      "estic": 3373,
      "Ġsing": 3374,
      "ê·¸ëŀĺ": 3375,
      "Ġel": 3376,
      "ìĩ": 3377,
      "ĠëĪĦ": 3378,
      "Ġfollowing": 3379,
      "Ġvisit": 3380,
      "ë¦¬ê°Ģ": 3381,
      "Ġìĸ´ëł¤": 3382,
      "êµŃìĿĺ": 3383,
      "íķĺìĦ¸ìļĶ": 3384,
      "Ġdifference": 3385,
      "Ġacqu": 3386,
      "Ġ60": 3387,
      "ĠëĮĢë¶Ģë¶Ħ": 3388,
      "Ġconducted": 3389,
      "Ġprep": 3390,
      "ì¹ľ": 3391,
      "ĠìĿ¼ë³¸": 3392,
      "Ġìĸ¼": 3393,
      "idence": 3394,
      "Ġê²°ê³¼ë¥¼": 3395,
      "Ġê°ľìĦł": 3396,
      "ĠëķĮë¬¸ìĿ´ëĭ¤": 3397,
      "rict": 3398,
      "Ġ22": 3399,
      "íį¼": 3400,
      "íķĺëł¤": 3401,
      "Ġmillion": 3402,
      "Ġìŀł": 3403,
      "Ġprinc": 3404,
      "ì£ł": 3405,
      "arding": 3406,
      "ìłĦíŀĪ": 3407,
      "Ġë°Ķëŀ": 3408,
      "ocus": 3409,
      "aim": 3410,
      "Ġquality": 3411,
      "Ġremain": 3412,
      "Ġë³´ëĤ´": 3413,
      "Ġseen": 3414,
      "Ġlegal": 3415,
      "Ġcoop": 3416,
      "ëĶ°ëĿ¼ìĦľ": 3417,
      "ê´Ģê³Ħ": 3418,
      "Ġterminal": 3419,
      "amp": 3420,
      "ĠìĤ¬ë¡Ģ": 3421,
      "Ġë°ķíħĮë¦¬ìķĦ": 3422,
      "Ġareas": 3423,
      "ĠìĿ´ëĬĶ": 3424,
      "Ġsay": 3425,
      "ìĭľìĹĲ": 3426,
      "Ġì¢ĭìĿĢ": 3427,
      "ets": 3428,
      "Ġinflu": 3429,
      "ĠSeoul": 3430,
      "Ġable": 3431,
      "Ġë¹Ħìľ¨": 3432,
      "ë³ĢìĿ´": 3433,
      "ĠìĭĿíĴĪ": 3434,
      "Ġì¡°ìłĪ": 3435,
      "Ġrole": 3436,
      "ê²Ģ": 3437,
      "Ġê°ľìĿ¸": 3438,
      "Ġíİĺ": 3439,
      "íĻĶëĲľ": 3440,
      "Ġenergy": 3441,
      "uit": 3442,
      "ì§Ģê°Ģ": 3443,
      "Ġsever": 3444,
      "ëĬĺ": 3445,
      "Ġlist": 3446,
      "Ġcommon": 3447,
      "Ġìłľì¡°": 3448,
      "arant": 3449,
      "els": 3450,
      "Ġpot": 3451,
      "ĠëĶĶìĬ¤íĶĮëłĪìĿ´": 3452,
      "Ġauthor": 3453,
      "ĠìĥģëĮĢ": 3454,
      "br": 3455,
      "Ġdetail": 3456,
      "Ġcontinu": 3457,
      "rug": 3458,
      "oid": 3459,
      "pose": 3460,
      "ìĪĺê°Ģ": 3461,
      "ware": 3462,
      "Ġexplain": 3463,
      "ìĽĲìĿ´": 3464,
      "Ġthough": 3465,
      "Ġbo": 3466,
      "Ġëį°ìĿ´íĦ°ë¥¼": 3467,
      "Ġë°ĶëŀįëĭĪëĭ¤": 3468,
      "Ġê²ĥìŀħëĭĪëĭ¤": 3469,
      "ml": 3470,
      "Ġannoun": 3471,
      "ivity": 3472,
      "Ġspe": 3473,
      "ables": 3474,
      "Ġë°ľëªħìĿĺ": 3475,
      "edi": 3476,
      "Ġappear": 3477,
      "uk": 3478,
      "ë°Ģ": 3479,
      "Ġself": 3480,
      "Ġeffic": 3481,
      "Ġadj": 3482,
      "Ġíķ´ê²°": 3483,
      "eral": 3484,
      "obal": 3485,
      "Ġëĵ±ìĿ´": 3486,
      "Ġë³Ģê²½": 3487,
      "ew": 3488,
      "ĠíļĮìĤ¬": 3489,
      "ìĦ±ìĿĺ": 3490,
      "íħĲì¸ł": 3491,
      "íĤ¬": 3492,
      "Ġê±°ëŀĺ": 3493,
      "Ġstor": 3494,
      "Ġshort": 3495,
      "Ġì´ī": 3496,
      "me": 3497,
      "ĠëıĻìŀĳ": 3498,
      "ĠìķĦìĿ´": 3499,
      "Ġestablish": 3500,
      "Ġlocated": 3501,
      "ĠìĿ´ìĥģìĿĺ": 3502,
      "ĠíķĦìļĶíķĺëĭ¤": 3503,
      "'re": 3504,
      "Ġexec": 3505,
      "Ġëªĩ": 3506,
      "omp": 3507,
      "Ġgr": 3508,
      "Ġenc": 3509,
      "akes": 3510,
      "»ê²Į": 3511,
      "ìłĢëĬĶ": 3512,
      "They": 3513,
      "Ġmembers": 3514,
      "Ġfund": 3515,
      "íķĺê±°ëĤĺ": 3516,
      "Ġinvestment": 3517,
      "ì§ĢìĿĺ": 3518,
      "ëıĦìĹĲ": 3519,
      "ilit": 3520,
      "ì¼ĢìĿ´": 3521,
      "Ġrequired": 3522,
      "Ġmeeting": 3523,
      "Ġadded": 3524,
      "Ġshare": 3525,
      "ĠëıĦìĭľ": 3526,
      "ĠìķĬê³ł": 3527,
      "Ġê³Ħìķ½": 3528,
      "ĠìĤ¼": 3529,
      "Ġdeg": 3530,
      "Ġfocus": 3531,
      "ìĬ¤ë¥¼": 3532,
      "pid": 3533,
      "Ġcorresponding": 3534,
      "CC": 3535,
      "Ġë²Īì§¸": 3536,
      "What": 3537,
      "Ġdeveloped": 3538,
      "ream": 3539,
      "ê²¨": 3540,
      "Ġreceive": 3541,
      "Ġìłľê±°": 3542,
      "ĠStates": 3543,
      "hers": 3544,
      "ëĶ©": 3545,
      "Ġcontroll": 3546,
      "aint": 3547,
      "Ġë³´ìĿ¸": 3548,
      "Ġspace": 3549,
      "ìłģìĿ´": 3550,
      "Ġabs": 3551,
      "Ġìĸ´ëĸ¤": 3552,
      "Ġê·¹": 3553,
      "ĠCent": 3554,
      "ountain": 3555,
      "Ġë¯¸ì¹ĺëĬĶ": 3556,
      "ĠìŀĲë£Į": 3557,
      "ĠíĥĦ": 3558,
      "Ġorig": 3559,
      "ìĽĲìĿĦ": 3560,
      "Ġavail": 3561,
      "Ġìķķ": 3562,
      "Ġrights": 3563,
      "ien": 3564,
      "ìĨĲ": 3565,
      "Ġìĥģíĺ¸": 3566,
      "Ġmedia": 3567,
      "utions": 3568,
      "Ġkey": 3569,
      "Ġcorpor": 3570,
      "Ġsat": 3571,
      "ufact": 3572,
      "Ġìĥģëĭ¹": 3573,
      "ng": 3574,
      "ermine": 3575,
      "Ġëħ¼ìĿĺ": 3576,
      "Ġnatural": 3577,
      "ĠëĤł": 3578,
      "Ġê´Ģê´ĳ": 3579,
      "ĠìĹŃíķłìĿĦ": 3580,
      "ëłĩê²Į": 3581,
      "Ġbenef": 3582,
      "íĨ": 3583,
      "Ġobserved": 3584,
      "ĠíĳľíĺĦ": 3585,
      "apt": 3586,
      "ìŀĪ": 3587,
      "Ġdetermine": 3588,
      "Ġknown": 3589,
      "Ġshe": 3590,
      "ìĥģìĿ´": 3591,
      "ĠìĺĪìłķ": 3592,
      "ëĵĪ": 3593,
      "ìŀ¥ìĿ´": 3594,
      "ê¸°ëıĦ": 3595,
      "Ġclear": 3596,
      "ĵ¨": 3597,
      "Ġask": 3598,
      "Ġobtained": 3599,
      "Ġì¸¡ë©´": 3600,
      "co": 3601,
      "Ġvi": 3602,
      "Ġplural": 3603,
      "Ġlimit": 3604,
      "Ġland": 3605,
      "utes": 3606,
      "Ġblock": 3607,
      "ìĸ´ëıĦ": 3608,
      "ĠìłķìĿĺ": 3609,
      "reng": 3610,
      "ĠìļĶì²Ń": 3611,
      "Ġë¹Ħíķ´": 3612,
      "íķ¨ìľ¼ë¡ľìį¨": 3613,
      "ĠâĢ": 3614,
      "ĠPl": 3615,
      "Ġ21": 3616,
      "rateg": 3617,
      "Ġopt": 3618,
      "Ġê¸°ë¡Ŀ": 3619,
      "ĠëĬĺ": 3620,
      "ê°Ĵ": 3621,
      "ê°Ģì§Ģ": 3622,
      "Ġìī½": 3623,
      "Ġnorm": 3624,
      "chie": 3625,
      "FFF": 3626,
      "hic": 3627,
      "ĠìĿ¸ìłķ": 3628,
      "ìķĦìļĶ": 3629,
      "íķĺê³łìŀĲ": 3630,
      "ĠìĥģíĴĪ": 3631,
      "ëĬĲ": 3632,
      "Ġadminist": 3633,
      "ìļ±": 3634,
      "Ġsw": 3635,
      "ĠìŀĪìĿĮìĿĦ": 3636,
      "ëĿ¼ìĿ¸": 3637,
      "Ġweek": 3638,
      "Ġmanufact": 3639,
      "Ġ23": 3640,
      "Ġíģ¬ê²Į": 3641,
      "ìĦ¸íı¬": 3642,
      "ĠUS": 3643,
      "Ġestablished": 3644,
      "Ġstrong": 3645,
      "usion": 3646,
      "ëĵ¤ê³¼": 3647,
      "Ġnetwork": 3648,
      "ĠìĿ¸ê°Ħ": 3649,
      "ĠSouth": 3650,
      "ĠJe": 3651,
      "Ġvac": 3652,
      "ĠëıĻìĿ¼íķľ": 3653,
      "Ġë°©ë¬¸": 3654,
      "Ġìĸµìłľ": 3655,
      "Ġmid": 3656,
      "Ġut": 3657,
      "Ġclaim": 3658,
      "Although": 3659,
      "Ġenter": 3660,
      "Ġpatient": 3661,
      "Ġplurality": 3662,
      "til": 3663,
      "ì£Ħ": 3664,
      "íıŃ": 3665,
      "Ġì¶ľëł¥": 3666,
      "Ġlevels": 3667,
      "Ġrele": 3668,
      "ì²´ê°Ģ": 3669,
      "Ġpast": 3670,
      "Ġsum": 3671,
      "Ġbest": 3672,
      "ĠëĦĺ": 3673,
      "ëĵ¤ìĹĲ": 3674,
      "Ġsamples": 3675,
      "ìĤ¬íļĮ": 3676,
      "íķľëĭ¤ëĬĶ": 3677,
      "ëħĢ": 3678,
      "Ġstreng": 3679,
      "Ġê³¨": 3680,
      "Ġachie": 3681,
      "Ġfrequ": 3682,
      "asm": 3683,
      "ĠíĤ¤": 3684,
      "epend": 3685,
      "22": 3686,
      "oon": 3687,
      "rial": 3688,
      "íİ´": 3689,
      "Ġì¹ľ": 3690,
      "Ġspread": 3691,
      "ograph": 3692,
      "ĠìĿ´ìļ©íķĺìĹ¬": 3693,
      "ceed": 3694,
      "Ġë³´íĹĺ": 3695,
      "Ġselected": 3696,
      "íĶĦë¡ľ": 3697,
      "Ġmaintain": 3698,
      "ëĿ¼ìĬ¤": 3699,
      "Ġphys": 3700,
      "Ġì»´": 3701,
      "Ġdomestic": 3702,
      "ĠìķĬìķĺ": 3703,
      "Ġeffects": 3704,
      "íķĦ": 3705,
      "Ġadditional": 3706,
      "ĠìĺĪì¸¡": 3707,
      "any": 3708,
      "ĠíĴĪ": 3709,
      "Ch": 3710,
      "ìľ¼ë©´": 3711,
      "Ġmob": 3712,
      "oice": 3713,
      "ìĹ°ë³ĢìĿ´": 3714,
      "ë¦¬ìĹĲ": 3715,
      "Ġmov": 3716,
      "ĠìĤ´íİ´": 3717,
      "Ġê¸°ì¡´": 3718,
      "ì¼Ģ": 3719,
      "ĠìłľìķĪ": 3720,
      "Ġgene": 3721,
      "Ġmeasure": 3722,
      "ĠíķĻêµĲ": 3723,
      "Ġê¸°ëĮĢ": 3724,
      "íĥĪ": 3725,
      "Ġseveral": 3726,
      "omes": 3727,
      "Ġgroups": 3728,
      "aring": 3729,
      "Ġvehic": 3730,
      "Ġê°ĢëĬ¥ìĦ±ìĿ´": 3731,
      "âĢĻ": 3732,
      "ĠíĮ¨íĦ´": 3733,
      "ĠíĨµìĭł": 3734,
      "16": 3735,
      "Ġë¶Ħìķ¼": 3736,
      "posed": 3737,
      "Ġê°Ī": 3738,
      "iving": 3739,
      "Ġê¹Ģ": 3740,
      "Ġíı¬íķ¨íķĺëĬĶ": 3741,
      "Ġteac": 3742,
      "Ġpolit": 3743,
      "Ġvalues": 3744,
      "Ġproced": 3745,
      "ëªħìĿ´": 3746,
      "Ġì²¨": 3747,
      "Ġêµ¬ë§¤": 3748,
      "ìĬ¤ìĿĺ": 3749,
      "íĵ¨": 3750,
      "ĠKim": 3751,
      "ably": 3752,
      "Ġincludes": 3753,
      "Ġìłĳê·¼": 3754,
      "Ġfive": 3755,
      "Ġìĸ´ëĸ»ê²Į": 3756,
      "Ġver": 3757,
      "Ġsha": 3758,
      "dro": 3759,
      "Ġinit": 3760,
      "íķ´ìĦľ": 3761,
      "Ġhaving": 3762,
      "Ġaccess": 3763,
      "itor": 3764,
      "Ġconcept": 3765,
      "ĠëĤ®ìĿĢ": 3766,
      "ann": 3767,
      "ĠArticle": 3768,
      "ì°½": 3769,
      "illage": 3770,
      "ëĵľë¥¼": 3771,
      "Ġincreasing": 3772,
      "ìĭ±": 3773,
      "ĠpH": 3774,
      "Ġìħ": 3775,
      "Ġsecurity": 3776,
      "ê·¸ë¦¬ê³ł": 3777,
      "ê´": 3778,
      "Ġanalyzed": 3779,
      "ìĶ¨": 3780,
      "Ġtoo": 3781,
      "íĤ¨": 3782,
      "Ġdr": 3783,
      "ocy": 3784,
      "Ġterms": 3785,
      "ĠíĿ¡": 3786,
      "iversity": 3787,
      "ëħķ": 3788,
      "Ġearly": 3789,
      "Ġcat": 3790,
      "Ġcomput": 3791,
      "Ġaverage": 3792,
      "Ġrecomm": 3793,
      "ĠìĻ¸ë¶Ģ": 3794,
      "ĠëĬĲ": 3795,
      "Ġagree": 3796,
      "ĠíķĺëĤĺìĿĺ": 3797,
      "iation": 3798,
      "Ġê°ĦìĿĺ": 3799,
      "istic": 3800,
      "ĠìŀĪìĸ´ìĦľ": 3801,
      "ension": 3802,
      "Ġbuy": 3803,
      "Ġbecome": 3804,
      "ĠëĦĪ": 3805,
      "Ġglobal": 3806,
      "ĠìĨ¡": 3807,
      "Ġìŀĳìļ©": 3808,
      "ready": 3809,
      "ĠìłĦëĭ¬": 3810,
      "ìłķë³´": 3811,
      "ĠìŀĳìĹħ": 3812,
      "Ġtext": 3813,
      "Ġíļ¨ìľ¨": 3814,
      "ĠíķĺìĺĢëĭ¤": 3815,
      "pping": 3816,
      "Ġê¸Ģ": 3817,
      "ì§Ħëĭ¤": 3818,
      "ĠíĦ°ì¹ĺ": 3819,
      "Ġstrateg": 3820,
      "etic": 3821,
      "Ġname": 3822,
      "Ġìķ¡": 3823,
      "Ġvirus": 3824,
      "Ġë³´ìĹ¬ì£¼": 3825,
      "upp": 3826,
      "Ġsingle": 3827,
      "ĠëĤ´ë¶Ģ": 3828,
      "Ġ120": 3829,
      "ĠìŀĲëıĻ": 3830,
      "Ġtransmit": 3831,
      "ĠìĹ°êµ¬ìĹĲìĦľ": 3832,
      "Ġìĭľíĸī": 3833,
      "18": 3834,
      "Ġê·¸ë¦¬ê³ł": 3835,
      "ĠìłĦìĹĲ": 3836,
      "ì¦ĺ": 3837,
      "Ġcenter": 3838,
      "Ġflu": 3839,
      "Ġprocessing": 3840,
      "Ġê¸°ë³¸": 3841,
      "ĠëıĮìĹ°ë³ĢìĿ´": 3842,
      "Ġlet": 3843,
      "Ġsignificantly": 3844,
      "ìļ´ëį°": 3845,
      "Ġalready": 3846,
      "ĠAs": 3847,
      "ĠëĮĢíķĺìĹ¬": 3848,
      "ĩ´": 3849,
      "Ġê²ĢìĤ¬": 3850,
      "ìĪĺëĬĶ": 3851,
      "Ġill": 3852,
      "ìľ¼ëĤĺ": 3853,
      "Therefore": 3854,
      "ĠìŀĪìĸ´ìļĶ": 3855,
      "Ġresid": 3856,
      "ìĦľë¥¼": 3857,
      "Ġreally": 3858,
      "ĠíĻķëĮĢ": 3859,
      "istry": 3860,
      "Ġê°ľëħĲ": 3861,
      "ëĭµ": 3862,
      "endant": 3863,
      "Ġprim": 3864,
      "ĠíĸĪ": 3865,
      "Ġë°ľíĺĦ": 3866,
      "ier": 3867,
      "Ġmot": 3868,
      "Ġcalled": 3869,
      "ê¸°ë¡ľ": 3870,
      "iments": 3871,
      "alk": 3872,
      "ĠëĲĺëĬĶ": 3873,
      "ĠìĤ¬ìĿ´ìĿĺ": 3874,
      "Ġemerg": 3875,
      "ĠìĹĨìĿ´": 3876,
      "Ġëĥ": 3877,
      "Ġnuc": 3878,
      "ë°ĶìĿ´ìĬ¤": 3879,
      "Ġpriv": 3880,
      "Ġrun": 3881,
      "Ġìĵ": 3882,
      "And": 3883,
      "ĠíķĦìļĶê°Ģ": 3884,
      "Ġdra": 3885,
      "Ġëª©íĳľ": 3886,
      "oms": 3887,
      "Ġantib": 3888,
      "Ġdemand": 3889,
      "Ġsupply": 3890,
      "Ġfamily": 3891,
      "Ġdig": 3892,
      "Ġsensor": 3893,
      "ĠíĿ¬": 3894,
      "Ġexpression": 3895,
      "Ġtravel": 3896,
      "Ġmemory": 3897,
      "Ġreturn": 3898,
      "ctions": 3899,
      "ĠìĹĲëĦĪ": 3900,
      "to": 3901,
      "Ġsales": 3902,
      "ves": 3903,
      "Ġfra": 3904,
      "ĠìĤ¬ë§Ŀ": 3905,
      "ìĽĲìĿĢ": 3906,
      "Ġpoly": 3907,
      "ëŁīìĿĦ": 3908,
      "Ġê²½ìŁģ": 3909,
      "Ġevalu": 3910,
      "Ġshows": 3911,
      "..": 3912,
      "acy": 3913,
      "Ġcer": 3914,
      "hem": 3915,
      "Ġë°°ì¹ĺ": 3916,
      "ê³¨": 3917,
      "íħĶ": 3918,
      "25": 3919,
      "Ġstrain": 3920,
      "Ġë¶Ħë¥ĺ": 3921,
      "ĠíıŃ": 3922,
      "ëĿ¼ëıĦ": 3923,
      "ĠìµľìĨĮ": 3924,
      "Ġage": 3925,
      "ëĵľë¦½ëĭĪëĭ¤": 3926,
      "ë¶ĢëĬĶ": 3927,
      "ĠëĮĢìĥģìľ¼ë¡ľ": 3928,
      "ë³¼": 3929,
      "ends": 3930,
      "Ġbase": 3931,
      "olution": 3932,
      "ëĨį": 3933,
      "ĠìŀĲìĹ°": 3934,
      "ond": 3935,
      "ĠìĦľë¡ľ": 3936,
      "Ġspecies": 3937,
      "ĠìĿ¸íķľ": 3938,
      "ĠìĪĺì§ĳ": 3939,
      "Ġlog": 3940,
      "Ġpurpose": 3941,
      "Ġestim": 3942,
      "ìĽĢìĿ´": 3943,
      "íĬ¸ë¥¼": 3944,
      "fficient": 3945,
      "Please": 3946,
      "Ġnegative": 3947,
      "ression": 3948,
      "ĠìĺĪìĥģ": 3949,
      "ĠìĿ´ë²Ī": 3950,
      "Ġapply": 3951,
      "Ġê±°ìĿĺ": 3952,
      "All": 3953,
      "Ġcaused": 3954,
      "Ġinteg": 3955,
      "ĠìĹ¬íĸī": 3956,
      "ĠíĻķì§Ħ": 3957,
      "Ġìłķì¹ĺ": 3958,
      "ĠìłķíĻķ": 3959,
      "ëı¼": 3960,
      "urope": 3961,
      "Ġrequire": 3962,
      "Ġëª¨ëĵĪ": 3963,
      "Ġimmun": 3964,
      "ĠDef": 3965,
      "ê¸Ģ": 3966,
      "Ġgoing": 3967,
      "ìķĻ": 3968,
      "ĠInd": 3969,
      "Ġì§Ģê¸Ī": 3970,
      "ĠìĿĢ": 3971,
      "ternal": 3972,
      "Ġmodule": 3973,
      "Ġë³Ħ": 3974,
      "ried": 3975,
      "ĠìķĬëĬĶëĭ¤": 3976,
      "Ġur": 3977,
      "Ġactive": 3978,
      "Ġ110": 3979,
      "lig": 3980,
      "ĠX": 3981,
      "Ġcause": 3982,
      "Ġrepl": 3983,
      "ged": 3984,
      "ë¦¬ìĬ¤": 3985,
      "Ġsucc": 3986,
      "ĠìĬ¤íĬ¸": 3987,
      "Ġclin": 3988,
      "Ġfactor": 3989,
      "ĠìĹ°ëĿ½": 3990,
      "Ġëª©ìłģ": 3991,
      "So": 3992,
      "ìĨĮë¥¼": 3993,
      "Ġê³µëıĻ": 3994,
      "ĠíĸīìľĦ": 3995,
      "Ġtypes": 3996,
      "Ġuntil": 3997,
      "Ġê·ľëª¨": 3998,
      "Ġdiagn": 3999,
      "mission": 4000,
      "EC": 4001,
      "ĠAss": 4002,
      "Ġloss": 4003,
      "¿Ĳë§Į": 4004,
      "ê³¼ìĿĺ": 4005,
      "Ġgame": 4006,
      "Ġbat": 4007,
      "imal": 4008,
      "ìľ¼ë¡ľë¶ĢíĦ°": 4009,
      "Ġweight": 4010,
      "Ġstorage": 4011,
      "cri": 4012,
      "¢°": 4013,
      "Ġmeasures": 4014,
      "Ġtoget": 4015,
      "Ġì½ĺíħĲì¸ł": 4016,
      "Ġavailable": 4017,
      "Ġtogether": 4018,
      "Ġparent": 4019,
      "Ġì£¼ìŀ¥": 4020,
      "Ġcomplete": 4021,
      "oney": 4022,
      "ëĵľëĬĶ": 4023,
      "ê°Ī": 4024,
      "je": 4025,
      "isf": 4026,
      "Ġê°Ģìļ´ëį°": 4027,
      "ë¢°": 4028,
      "Ġmember": 4029,
      "Ġë³´ìĿ¸ëĭ¤": 4030,
      "ĠSh": 4031,
      "Ġbuilding": 4032,
      "Ġet": 4033,
      "Ġprob": 4034,
      "Ġresistance": 4035,
      "part": 4036,
      "But": 4037,
      "Ġëĭ¨ë§Ĳ": 4038,
      "here": 4039,
      "Ġproperty": 4040,
      "pped": 4041,
      "ë¡¯": 4042,
      "ìĽĮíģ¬": 4043,
      "ìĭľíĤ¤ëĬĶ": 4044,
      "ëĲ©ëĭĪëĭ¤": 4045,
      "íķĳ": 4046,
      "Ġìŀ¡": 4047,
      "Ġdeli": 4048,
      "Ġ300": 4049,
      "Ġê°ķì¡°": 4050,
      "Ġsent": 4051,
      "Ġë¶ģíķľ": 4052,
      "ĠDe": 4053,
      "san": 4054,
      "ìħ¨": 4055,
      "Ġtraining": 4056,
      "ĠìķĪìłķ": 4057,
      "Ġmaking": 4058,
      "Ġê²°ê³¼ëĬĶ": 4059,
      "ìĽĲíļĮ": 4060,
      "yeon": 4061,
      "ĠìķĮê³ł": 4062,
      "Ġê³ĦìĨį": 4063,
      "Ġaffect": 4064,
      "Ġcarb": 4065,
      "íĺĦìŀ¬": 4066,
      "Ġproblems": 4067,
      "Ġë§Īëł¨": 4068,
      "Ġexisting": 4069,
      "Ġìĺģìĥģ": 4070,
      "ĠëĶĶë°ĶìĿ´ìĬ¤": 4071,
      "ĠìĤ¬íķŃ": 4072,
      "ĠIntern": 4073,
      "Ġê¸°ê´Ģ": 4074,
      "ìĥĪ": 4075,
      "Ġì²ľ": 4076,
      "vention": 4077,
      "Ġíľ´": 4078,
      "Ġê³µìĹ°": 4079,
      "Ġannounced": 4080,
      "Ġë²ĶìľĦ": 4081,
      "Ġinterp": 4082,
      "inese": 4083,
      "use": 4084,
      "íķĺìĿĺ": 4085,
      "ique": 4086,
      "Ġë©´ìĹŃ": 4087,
      "Ġgive": 4088,
      "ì¿": 4089,
      "Ġlabor": 4090,
      "ìĿ´ìĹĪëĭ¤": 4091,
      "Ġsuper": 4092,
      "ìĩĦ": 4093,
      "Ġgre": 4094,
      "den": 4095,
      "ĠìłĦëŀµ": 4096,
      "Ġreview": 4097,
      "Ġpayment": 4098,
      "Ġdirectly": 4099,
      "let": 4100,
      "ìŀ¥ìĹĲìĦľ": 4101,
      "oll": 4102,
      "Ġì²«": 4103,
      "ĠìĪĻ": 4104,
      "Ġcompon": 4105,
      "ĠìłĦê¸°": 4106,
      "Ġord": 4107,
      "Ġbelie": 4108,
      "Ġexch": 4109,
      "ĠEurope": 4110,
      "Ġcourse": 4111,
      "II": 4112,
      "ìĦ¸ìĦľ": 4113,
      "Ġì»¨": 4114,
      "Ġìĭ¤íĸī": 4115,
      "íģ¼": 4116,
      "Ġfind": 4117,
      "ĠìļĶìĿ¸": 4118,
      "Ġíĳľë©´": 4119,
      "ĠíĴį": 4120,
      "dong": 4121,
      "ì¹Ń": 4122,
      "ĠíħĮìĬ¤íĬ¸": 4123,
      "ĠìłĪì°¨": 4124,
      "ìķĪëħķ": 4125,
      "ĠìłľíĴĪìĿĦ": 4126,
      "Ġê³ĦìĤ°": 4127,
      "Ġrange": 4128,
      "ê¹ĮìļĶ": 4129,
      "ather": 4130,
      "Ġconcentration": 4131,
      "Ġì§Ħëĭ¨": 4132,
      "ì¼ĢìĿ´ìħĺ": 4133,
      "Ġheat": 4134,
      "ĠìĦ¤ì¹ĺ": 4135,
      "Ġsite": 4136,
      "chan": 4137,
      "Ġimpact": 4138,
      "Ġê°ķíĻĶ": 4139,
      "Ġquant": 4140,
      "°ëĭ¤": 4141,
      "ì§ľ": 4142,
      "Ġalong": 4143,
      "17": 4144,
      "CT": 4145,
      "¼ìłĢ": 4146,
      "ortun": 4147,
      "Ġsource": 4148,
      "Ġê°ĸëĬĶ": 4149,
      "ê°ĢìļĶ": 4150,
      "ëķĮ": 4151,
      "Ġide": 4152,
      "Ġmanag": 4153,
      "ê¸°ê´Ģ": 4154,
      "Ġconfig": 4155,
      "Ġextract": 4156,
      "ĠìľĦíķĺìĹ¬": 4157,
      "Ġste": 4158,
      "bs": 4159,
      "Ġë¬¼ì§Ī": 4160,
      "Ġold": 4161,
      "ĠEU": 4162,
      "ways": 4163,
      "alf": 4164,
      "Ġjob": 4165,
      "Ġfeel": 4166,
      "Ġregarding": 4167,
      "ĠìĤ¬ìļ©íķł": 4168,
      "AAAëĬĶ": 4169,
      "Ġhard": 4170,
      "ĠìľłëıĦ": 4171,
      "ì²´ëĬĶ": 4172,
      "ached": 4173,
      "Ġê°Ŀ": 4174,
      "ê³¡": 4175,
      "rap": 4176,
      "of": 4177,
      "Ġinvol": 4178,
      "ived": 4179,
      "Ġsoci": 4180,
      "ĠìĦľìļ¸": 4181,
      "Ġrather": 4182,
      "Ġë³´ëĭ¤": 4183,
      "ìłľìĿĺ": 4184,
      "ĠìĪĺìļ©": 4185,
      "ìĬ¤íģ¬": 4186,
      "Ġsusp": 4187,
      "Ġcustomers": 4188,
      "Ġì²ĺìĿĮ": 4189,
      "Ġì£¼ìĭľ": 4190,
      "ising": 4191,
      "ìĿĺë¥¼": 4192,
      "imum": 4193,
      "Ġhot": 4194,
      "Ġcapital": 4195,
      "Ġexternal": 4196,
      "íķľêµŃ": 4197,
      "Ġëī´": 4198,
      "íĥķ": 4199,
      "Ġput": 4200,
      "Ġeng": 4201,
      "Ġreduced": 4202,
      "ì¦ī": 4203,
      "Ġì²ł": 4204,
      "ìĹ¬ê¸°": 4205,
      "With": 4206,
      "Ġhope": 4207,
      "cl": 4208,
      "Ġviol": 4209,
      "Ġìķħ": 4210,
      "110": 4211,
      "Ġbehav": 4212,
      "ĠíĶ¼íķ´": 4213,
      "ê°ĢëĬĶ": 4214,
      "aintiff": 4215,
      "ì´Ŀ": 4216,
      "ë²½": 4217,
      "Ġì¦ī": 4218,
      "ìĭľíĤ¬": 4219,
      "Ġreve": 4220,
      "Ġsuccess": 4221,
      "iding": 4222,
      "Ġbacteria": 4223,
      "Ġrespectively": 4224,
      "Ġíķ´ìĦĿ": 4225,
      "íĮĢ": 4226,
      "ìĿ´ìĻĢ": 4227,
      "Ġmar": 4228,
      "Ġcommunity": 4229,
      "Ġwin": 4230,
      "ĠëıĦìŀħ": 4231,
      "nces": 4232,
      "Ġnear": 4233,
      "ending": 4234,
      "Ġleft": 4235,
      "ones": 4236,
      "Ġadjust": 4237,
      "Ġíļį": 4238,
      "Ġsell": 4239,
      "Ġwords": 4240,
      "íĶĮë¦¬": 4241,
      "ê·¸ëĬĶ": 4242,
      "val": 4243,
      "ili": 4244,
      "ĠìłľìĻ¸": 4245,
      "wh": 4246,
      "ses": 4247,
      "ĠëįĶìļ±": 4248,
      "Ġbre": 4249,
      "zym": 4250,
      "Ġclose": 4251,
      "Ġelement": 4252,
      "Ġresour": 4253,
      "Ġbasic": 4254,
      "ìĿ´ìĸ´": 4255,
      "Ġìĭ¤ìĭľìĺĪìĹĲ": 4256,
      "Ġvide": 4257,
      "Ġwomen": 4258,
      "Ġì¶©ë¶Ħ": 4259,
      "Ġ28": 4260,
      "Ġstage": 4261,
      "Ġserver": 4262,
      "ëĭ¤ë¥¸": 4263,
      "%,": 4264,
      "Ġ26": 4265,
      "Ġë¶Ģëĭ´": 4266,
      "Ġdamage": 4267,
      "ë¦¬ìĿĺ": 4268,
      "Ġfail": 4269,
      "ĠíĥĪ": 4270,
      "ators": 4271,
      "ìŀĲìĿ¸": 4272,
      "Ġì¼": 4273,
      "ìĻĦ": 4274,
      "ĠìŀĪì§Ģë§Į": 4275,
      "Ġregard": 4276,
      "Ġíĸ¥ìĥģ": 4277,
      "ëłµ": 4278,
      "ìĤ´": 4279,
      "Ġcertain": 4280,
      "Ġíļ¨ê³¼ë¥¼": 4281,
      "ĠíĬ¹íŀĪ": 4282,
      "ixed": 4283,
      "ĠëģĿ": 4284,
      "Ġdeb": 4285,
      "Ġresponsib": 4286,
      "ì´ī": 4287,
      "ĠMinistry": 4288,
      "Ġaud": 4289,
      "Ġfarm": 4290,
      "ìłľëĬĶ": 4291,
      "ìĭłìĿ´": 4292,
      "Ġphot": 4293,
      "ìķĪëħķíķĺìĦ¸ìļĶ": 4294,
      "Ġhour": 4295,
      "arc": 4296,
      "Ġhost": 4297,
      "St": 4298,
      "itud": 4299,
      "Ġselect": 4300,
      "ìĿ´ì§Ģ": 4301,
      "Ġë°ľíĳľ": 4302,
      "ropri": 4303,
      "ĠPCR": 4304,
      "ĠëĲĺìĸ´": 4305,
      "Ġbook": 4306,
      "Ġë¬¸ìłľê°Ģ": 4307,
      "ĠíĶ¼ê³ł": 4308,
      "Ġcomplex": 4309,
      "ĠìĭĿë³Ħ": 4310,
      "Ġconnected": 4311,
      "az": 4312,
      "af": 4313,
      "Ġmen": 4314,
      "ront": 4315,
      "ĠìĨĮê°ľ": 4316,
      "Ġconsist": 4317,
      "ĠìķĦëĭĮ": 4318,
      "Ġlimited": 4319,
      "ìĹĩ": 4320,
      "Ġíŀĺ": 4321,
      "Ġtry": 4322,
      "Ġë°ĽìķĦ": 4323,
      "Ġpressure": 4324,
      "iting": 4325,
      "Ġcome": 4326,
      "Ġë°©ë²ķìĿĦ": 4327,
      "Ġarr": 4328,
      "ìĿ´ë²Ī": 4329,
      "Ġplac": 4330,
      "Ġì§ĳëĭ¨": 4331,
      "Ġíĭ": 4332,
      "ĠëĤĺíĥĢëĤ¸ëĭ¤": 4333,
      "Ġchanged": 4334,
      "ëĦ¤ìļĶ": 4335,
      "Ġë¶Ģì¡±": 4336,
      "Ġë§Įëĵ¤ìĸ´": 4337,
      "Ġmobile": 4338,
      "aken": 4339,
      "ì£¼ìĭľ": 4340,
      "ĠìĦľìĹ´": 4341,
      "Ġwar": 4342,
      "Ġblood": 4343,
      "Ġìłģìĸ´ëıĦ": 4344,
      "Ġhol": 4345,
      "21": 4346,
      "ĠíĻķìĤ°": 4347,
      "Ġgas": 4348,
      "ãİ": 4349,
      "Ġmethods": 4350,
      "ë§ĪíĬ¸": 4351,
      "leg": 4352,
      "ìľ¼ë¡ľìĦľ": 4353,
      "won": 4354,
      "Ġappe": 4355,
      "Ġevaluation": 4356,
      "âĪ¼": 4357,
      "Ġê²©": 4358,
      "Ġseason": 4359,
      "Ġìłķìĥģ": 4360,
      "Ġbig": 4361,
      "dle": 4362,
      "Ġfew": 4363,
      "Even": 4364,
      "ì²Ļ": 4365,
      "Ġlikely": 4366,
      "Ġox": 4367,
      "ĠìłĦíĻĺ": 4368,
      "Ġz": 4369,
      "Ġsatisf": 4370,
      "Ġ70": 4371,
      "ĠìŀĲìľł": 4372,
      "Ġmeaning": 4373,
      "Ġ27": 4374,
      "Ġcontrib": 4375,
      "related": 4376,
      "ĠFIG": 4377,
      "Ġcred": 4378,
      "Ġpercent": 4379,
      "ĠChinese": 4380,
      "ĠìľĦíķ´ìĦľëĬĶ": 4381,
      "ĠìĤ¬ìĿ´ìĹĲ": 4382,
      "ëĩ": 4383,
      "Ġì»´íĵ¨": 4384,
      "Ġpack": 4385,
      "ĠìĿ¼ìłķ": 4386,
      "ìº": 4387,
      "Ġhistory": 4388,
      "Ġes": 4389,
      "Ġìµľê³ł": 4390,
      "cheon": 4391,
      "ìĿĢíĸī": 4392,
      "Ġrad": 4393,
      "ìŀ¡": 4394,
      "based": 4395,
      "Ġë¶ĦìĦĿìĿĦ": 4396,
      "ĠìĭľìĤ¬": 4397,
      "ĠíĸīëıĻ": 4398,
      "side": 4399,
      "ë´ī": 4400,
      "DA": 4401,
      "Ġcle": 4402,
      "ê¸ĪìĿĦ": 4403,
      "ury": 4404,
      "ë¥´ê²Į": 4405,
      "Ġë°ĺìĺģ": 4406,
      "Ġtradition": 4407,
      "ĠìĹĶ": 4408,
      "ask": 4409,
      "ëĤĺëĿ¼": 4410,
      "Ġcity": 4411,
      "Ġgenes": 4412,
      "ëłĪìĬ¤": 4413,
      "Ġë¹Ī": 4414,
      "ìĿ¼ìĿĦ": 4415,
      "the": 4416,
      "Ġê°Ģìłķ": 4417,
      "ĠëĤľ": 4418,
      "Ġportion": 4419,
      "Ġwhy": 4420,
      "¥Ĳ": 4421,
      "Ġdrug": 4422,
      "ĠíĬ¹ë³Ħ": 4423,
      "ĠìĦ¼ìĦľ": 4424,
      "Ġability": 4425,
      "ë¬¼ìĿ´": 4426,
      "Ġprocessor": 4427,
      "Ġlocation": 4428,
      "Ġbillion": 4429,
      "Ġmor": 4430,
      "Ġdistribution": 4431,
      "Ġconcern": 4432,
      "ules": 4433,
      "Ġë©Ķëª¨": 4434,
      "Ġstatus": 4435,
      "ì²´ìĹĲ": 4436,
      "ìĹĪìĬµëĭĪëĭ¤": 4437,
      "Ġì°¨ìĿ´ê°Ģ": 4438,
      "ĠìłķëıĦ": 4439,
      "Ġìľłê¸°": 4440,
      "Ġml": 4441,
      "ai": 4442,
      "Ġrecognized": 4443,
      "120": 4444,
      "Ġutil": 4445,
      "ê³Ħë¥¼": 4446,
      "íĴ": 4447,
      "ports": 4448,
      "Ġfinal": 4449,
      "Ġworking": 4450,
      "Ġ80": 4451,
      "ĠìĤ¬íļĮìłģ": 4452,
      "ìĤ¬ìļ©": 4453,
      "Ġstock": 4454,
      "Ġsect": 4455,
      "Ġcultural": 4456,
      "¶ģ": 4457,
      "ìħĶìĦľ": 4458,
      "Ġeconomy": 4459,
      "Ġtrade": 4460,
      "Ġpotential": 4461,
      "aff": 4462,
      "ë¡Ń": 4463,
      "ored": 4464,
      "Ġ37": 4465,
      "Ġissue": 4466,
      "ê¶ĮìĿĦ": 4467,
      "ĠìķĬìĿĦ": 4468,
      "Ġlaws": 4469,
      "ìłĲìĿ´": 4470,
      "Ġgenerated": 4471,
      "Ġhapp": 4472,
      "Ġrelatively": 4473,
      "Ġinstall": 4474,
      "Ġprovides": 4475,
      "ìŀĲìĻĢ": 4476,
      "Ġindu": 4477,
      "ĠìłģìłĪ": 4478,
      "Am": 4479,
      "ĠìĿ´ë¯¸ì§Ģ": 4480,
      "Ġpersonal": 4481,
      "ê·¸ëŁ°": 4482,
      "No": 4483,
      "Ġê°Ģì¹ĺ": 4484,
      "Ġsample": 4485,
      "Ġprofess": 4486,
      "ìµľê·¼": 4487,
      "oye": 4488,
      "ĳ¸": 4489,
      "Ġhous": 4490,
      "ìĪĺë¡Ŀ": 4491,
      "ëĲĺë©´": 4492,
      "ĠíĨµíķ©": 4493,
      "ĠìłĦìĨ¡": 4494,
      "Ġtransport": 4495,
      "ëī´": 4496,
      "íĦ¸": 4497,
      "Ġsend": 4498,
      "Ġìłľìŀĳ": 4499,
      "Ġprivate": 4500,
      "SA": 4501,
      "íı°": 4502,
      "aur": 4503,
      "Ġsafety": 4504,
      "ìĹĨ": 4505,
      "Ġìļ°ë¦¬ëĬĶ": 4506,
      "FIG": 4507,
      "ĠìĦ±ê³µ": 4508,
      "ĠëĦ¤íĬ¸": 4509,
      "ĠíĮĮìķħ": 4510,
      "Ġrapid": 4511,
      "ìłķë¶Ģ": 4512,
      "ê°ĢëĬ¥": 4513,
      "ì½ĺ": 4514,
      "Ġdecision": 4515,
      "Ġmonths": 4516,
      "ì°¬": 4517,
      "Ġë²ķë¥ł": 4518,
      "Ġexpand": 4519,
      "ĠíķĺìĹ¬": 4520,
      "Ġinhib": 4521,
      "Ġíķ´ìĻ¸": 4522,
      "Ġreveal": 4523,
      "Ġíĳľì¤Ģ": 4524,
      "Ġinfect": 4525,
      "emb": 4526,
      "osition": 4527,
      ".,": 4528,
      "íĶĮë¦¬ì¼ĢìĿ´ìħĺ": 4529,
      "Ġvehicle": 4530,
      "Ġê°Ģì§Ħ": 4531,
      "ĠGyeong": 4532,
      "RNA": 4533,
      "Ġì£¼ë¡ľ": 4534,
      "ëĵľë¦¬": 4535,
      "Ġaccept": 4536,
      "ĠìĨĮëĵĿ": 4537,
      "Ġëĳĺ": 4538,
      "ëĳ": 4539,
      "ë¬¸íĻĶ": 4540,
      "Ġê°Ĳì§Ģ": 4541,
      "ëĪĦ": 4542,
      "Ġcourt": 4543,
      "ching": 4544,
      "ëŁīìĿ´": 4545,
      "Ġitems": 4546,
      "Ġincreases": 4547,
      "verse": 4548,
      "au": 4549,
      "ë°ĶìĿ´ëŁ¬ìĬ¤": 4550,
      "ëıĮ": 4551,
      "ledge": 4552,
      "Ġpreviously": 4553,
      "ĠíļįëĵĿ": 4554,
      "ë¡¤": 4555,
      "Un": 4556,
      "Ġunderstand": 4557,
      "íĭ´": 4558,
      "Ġpolitical": 4559,
      "ultural": 4560,
      "onst": 4561,
      "ĠìķĦì§ģ": 4562,
      "Ġê²ĢíĨł": 4563,
      "Ġdetect": 4564,
      "Ġcard": 4565,
      "íĹĪ": 4566,
      "Ġê²½ìļ°ìĹĲëĬĶ": 4567,
      "Ġì½": 4568,
      "joy": 4569,
      "ìķ¡ìĿĦ": 4570,
      "TA": 4571,
      "Ġenzym": 4572,
      "Ġsympt": 4573,
      "Ġbank": 4574,
      "Ġëħ¸ì¶ľ": 4575,
      "Ġprotect": 4576,
      "ìłĿ": 4577,
      "icon": 4578,
      "Ġratio": 4579,
      "for": 4580,
      "ĠDae": 4581,
      "izes": 4582,
      "Ġop": 4583,
      "Ġemploye": 4584,
      "Ġcontents": 4585,
      "hest": 4586,
      "Ġë²Į": 4587,
      "íķľëĭ¤ê³ł": 4588,
      "vere": 4589,
      "Ġattention": 4590,
      "Ġindepend": 4591,
      "Ġcoun": 4592,
      "Ġeffective": 4593,
      "Ġjudgment": 4594,
      "ë³´íĹĺ": 4595,
      "ĠZ": 4596,
      "Ġmaterials": 4597,
      "Ġidentified": 4598,
      "Ġfilm": 4599,
      "ìłķëĲľ": 4600,
      "Ġmoney": 4601,
      "ocu": 4602,
      "Ġê¸°ëĬ¥ìĿĦ": 4603,
      "Ġproduced": 4604,
      "Thank": 4605,
      "Ġoffice": 4606,
      "íĭ¸": 4607,
      "ĠìķĦëŀĺ": 4608,
      "Ġmechan": 4609,
      "Ġess": 4610,
      "Ġrecently": 4611,
      "ash": 4612,
      "Ġcooperation": 4613,
      "Ġbetter": 4614,
      "ê³³": 4615,
      "Ġëı¼": 4616,
      "ĠìŀĪê¸°": 4617,
      "ìķĪìĿĦ": 4618,
      "Ġë³µìĪĺìĿĺ": 4619,
      "vey": 4620,
      "íĨµëł¹": 4621,
      "Ġë§Įì¡±": 4622,
      "resident": 4623,
      "Ġêµ¬ì²´": 4624,
      "ëĶĶìĸ´": 4625,
      "ìĺĪìļĶ": 4626,
      "Ġetc": 4627,
      "Ġwrit": 4628,
      "ëıĻìĤ°": 4629,
      "ëħĦìĹĲ": 4630,
      "ëĭ¤ë©´": 4631,
      "íıĲ": 4632,
      "Ġbeg": 4633,
      "Ġê²¬": 4634,
      "Ġfacilities": 4635,
      "ĠìĹ°êµ¬ìĹĲìĦľëĬĶ": 4636,
      "ìŀĲìĹĲ": 4637,
      "Ġ500": 4638,
      "Ġë°Ķë¡ľ": 4639,
      "Ġgiven": 4640,
      "ìŀ¥ê·ł": 4641,
      "ëĦ·": 4642,
      "Ġ29": 4643,
      "CO": 4644,
      "Ġregist": 4645,
      "Ġbehavior": 4646,
      "over": 4647,
      "Ġpresence": 4648,
      "like": 4649,
      "ĠíĶĮëĿ¼ìĬ¤": 4650,
      "Ġbroad": 4651,
      "ĠíĨµíķľ": 4652,
      "ìĥĿë¬¼": 4653,
      "Ġremov": 4654,
      "Ġìĸ´ëłµ": 4655,
      "Ġdeath": 4656,
      "Ġsix": 4657,
      "Ġë¬¸ìłľë¥¼": 4658,
      "Ġorganiz": 4659,
      "Ġconver": 4660,
      "íĸĪìľ¼ë©°": 4661,
      "Ġexperiment": 4662,
      "Ġsem": 4663,
      "itte": 4664,
      "ê°ľìĽĶ": 4665,
      "ĠëĦ¤íĬ¸ìĽĮíģ¬": 4666,
      "ìĤ¬ìĹĲ": 4667,
      "23": 4668,
      "Ġpopulation": 4669,
      "Ġdevices": 4670,
      "íĸĪëĭ¤ê³ł": 4671,
      "ëĲĺìĸ´ìķ¼": 4672,
      "Ġêµ¬ë¶Ħ": 4673,
      "Ġì´Īê¸°": 4674,
      "ĠìĥģìĬ¹": 4675,
      "Ġì¦Ĳ": 4676,
      "ìŀ¥ìĿĺ": 4677,
      "ĠìŀĦìĥģ": 4678,
      "Ġìĥī": 4679,
      "ĠíĮĢ": 4680,
      "ĠìłĦê·¹": 4681,
      "ëıĦìĻĢ": 4682,
      "Ġsoft": 4683,
      "Ġwa": 4684,
      "wang": 4685,
      "Ġhydro": 4686,
      "Ġenjoy": 4687,
      "Ġìłģê·¹": 4688,
      "ocyt": 4689,
      "Ġcontaining": 4690,
      "ìłľíĴĪ": 4691,
      "ĠìĹ°ê´Ģ": 4692,
      "term": 4693,
      "ì¹ł": 4694,
      "iency": 4695,
      "Ġê²½ë¡ľ": 4696,
      "ĠDefendant": 4697,
      "Ġprior": 4698,
      "Ġê³¼ìłķìĹĲìĦľ": 4699,
      "Ġsound": 4700,
      "ĠLee": 4701,
      "ĠìĺĪë°©": 4702,
      "ison": 4703,
      "Ġëĥī": 4704,
      "Oh": 4705,
      "Ġì£": 4706,
      "Ġparty": 4707,
      "ĠìŀĶ": 4708,
      "Ġdetected": 4709,
      "ĠëĦĪë¬´": 4710,
      "Ġìļ´ëıĻ": 4711,
      "Ġfall": 4712,
      "Ġpoints": 4713,
      "ĠíĺĪì²Ń": 4714,
      "Ġê³µìľł": 4715,
      "rame": 4716,
      "Ġpossibility": 4717,
      "ivil": 4718,
      "inary": 4719,
      "ë£Įë¥¼": 4720,
      "ĠìĦľë²Ħ": 4721,
      "ìĿ¸ì§Ģ": 4722,
      "Cl": 4723,
      "Ġì£¼ë³Ģ": 4724,
      "Ġrecord": 4725,
      "osure": 4726,
      "Ġlink": 4727,
      "ĠëıĦìĽĢìĿ´": 4728,
      "ĠJapanese": 4729,
      "Ġphen": 4730,
      "nov": 4731,
      "ì²ł": 4732,
      "Ġpurchase": 4733,
      "ĠìĹŃìĭľ": 4734,
      "Ġagreement": 4735,
      "ëģ¼": 4736,
      "ĠNew": 4737,
      "Ġcolon": 4738,
      "Ġfull": 4739,
      "ĠìĹħë¬´": 4740,
      "Ġlooking": 4741,
      "Ġë§Ľ": 4742,
      "ĠìĿĮìĭĿ": 4743,
      "Ġenvironmental": 4744,
      "Ġcircuit": 4745,
      "íķľíİ¸": 4746,
      "Ġappropri": 4747,
      "ĠëŁ": 4748,
      "Ġtrust": 4749,
      "Ġele": 4750,
      "ĠìĭľìĦ¤": 4751,
      "ĠìĥĿíĻľ": 4752,
      "Ġbur": 4753,
      "Ġìĵ°": 4754,
      "actions": 4755,
      "Ġreduce": 4756,
      "ĠëĪĪ": 4757,
      "ê¸´": 4758,
      "Ġelectrode": 4759,
      "ëĶĶìĺ¤": 4760,
      "Ġeasy": 4761,
      "Ġpresented": 4762,
      "ĠPark": 4763,
      "íļ¨ìĨĮ": 4764,
      "ë¦¬ìłģ": 4765,
      "iot": 4766,
      "Ġonline": 4767,
      "Ġexhib": 4768,
      "Ġmusic": 4769,
      "Ġì§Īë³ĳ": 4770,
      "amet": 4771,
      "Ġì¢ħë¥ĺ": 4772,
      "Ġpain": 4773,
      "aster": 4774,
      "Ġë°ĶìĻĢ": 4775,
      "ercial": 4776,
      "ĠêµŃë¯¼": 4777,
      "ĠíĬ¹ìĦ±": 4778,
      "ëŀľëĵľ": 4779,
      "ĠìĤ¬ê³ł": 4780,
      "Ġsociety": 4781,
      "ror": 4782,
      "cle": 4783,
      "Ġpric": 4784,
      "PS": 4785,
      "ĠìĦ¤ê³Ħ": 4786,
      "ëłĮ": 4787,
      "Ġìĸ´ëĬĲ": 4788,
      "Ġì¢Ģ": 4789,
      "Ġemail": 4790,
      "Ġìĭłë¢°": 4791,
      "ĠìĹĲëĦĪì§Ģ": 4792,
      "ĠìĭľíĹĺ": 4793,
      "rast": 4794,
      "Ġconsider": 4795,
      "Ġsearch": 4796,
      "Me": 4797,
      "Ġsmart": 4798,
      "ĠëĲĺìĹĪëĭ¤": 4799,
      "Ġê·¼ê±°": 4800,
      "sh": 4801,
      "ìĽ¨ìĸ´": 4802,
      "ext": 4803,
      "ì¤Ģëĭ¤": 4804,
      "ĠìľłìĤ¬íķľ": 4805,
      "Ġdriving": 4806,
      "ëĲĺìĹĪìľ¼ë©°": 4807,
      "ìłķìĿĺ": 4808,
      "Ġinstit": 4809,
      "Ġfront": 4810,
      "One": 4811,
      "ulating": 4812,
      "Ġcut": 4813,
      "mber": 4814,
      "ĠíĻķë³´": 4815,
      "osph": 4816,
      "ittee": 4817,
      "atures": 4818,
      "then": 4819,
      "oph": 4820,
      "ëĭĿ": 4821,
      "ĠìĪĺìĹħ": 4822,
      "Ġnormal": 4823,
      "ĠíĿĲ": 4824,
      "Ġsoon": 4825,
      "Ġmeasured": 4826,
      "Ġplasm": 4827,
      "Ġcharge": 4828,
      "Ġhalf": 4829,
      "Do": 4830,
      "Ġwide": 4831,
      "Ġlack": 4832,
      "orld": 4833,
      "Ġprinciple": 4834,
      "Ġstored": 4835,
      "Ġcoll": 4836,
      "Ġpan": 4837,
      "Ġbelow": 4838,
      "Ġemploy": 4839,
      "Ġëĵ±ìĹĲ": 4840,
      "Ġì¢ĭìķĦ": 4841,
      "Ġíĺĳëł¥": 4842,
      "ìĿ¼ìĹĲ": 4843,
      "ĠíĻį": 4844,
      "Ġëħ¸ëıĻ": 4845,
      "Ġë°ĽìĿĢ": 4846,
      "char": 4847,
      "Ġcompar": 4848,
      "Ġcorre": 4849,
      "Ġeffort": 4850,
      "ĠìĦľë¹ĦìĬ¤ë¥¼": 4851,
      "oty": 4852,
      "Ġrates": 4853,
      "Ġconstruction": 4854,
      "ëŀ«": 4855,
      "Ġdemonst": 4856,
      "Ġvirt": 4857,
      "Ġseems": 4858,
      "Ġphysical": 4859,
      "rim": 4860,
      "ìĤ¬ìĹħ": 4861,
      "phas": 4862,
      "ctor": 4863,
      "ume": 4864,
      "Ġìłģíķ©": 4865,
      "Ġdifferences": 4866,
      "Ġê°ľìĿĺ": 4867,
      "ĠCenter": 4868,
      "CìĹĲìĦľ": 4869,
      "Ġê·¸ê²ĥ": 4870,
      "Ġdocu": 4871,
      "êµ´": 4872,
      "uration": 4873,
      "ì§ĢìĹĲìĦľ": 4874,
      "ìĽĢìĿĦ": 4875,
      "íķ¨ìĿĦ": 4876,
      "Ġê²½ê¸°": 4877,
      "Ġreference": 4878,
      "CA": 4879,
      "Ġautom": 4880,
      "Ġder": 4881,
      "Ġincub": 4882,
      "ĠíĶĮëłĪìĿ´": 4883,
      "Ġë¬´ìĹĩ": 4884,
      "Ġsubs": 4885,
      "Ġclinical": 4886,
      "Ġìĥģê´Ģ": 4887,
      "rad": 4888,
      "íĶĦíĬ¸": 4889,
      "Ġbasis": 4890,
      "Ġë§ĪìĿĦ": 4891,
      "Ġvideo": 4892,
      "oor": 4893,
      "ery": 4894,
      "ëŁīìĿĺ": 4895,
      "ĠìŀĪëĬĶì§Ģ": 4896,
      "íķĻìĥĿ": 4897,
      "Ġknowledge": 4898,
      "ìĬ¤ëĬĶ": 4899,
      "24": 4900,
      "Ġë¨¸": 4901,
      "Ġíı¬íķ¨íķľëĭ¤": 4902,
      "Ġdecided": 4903,
      "Ġìľ¡": 4904,
      "ĠìĤ´íİ´ë³´": 4905,
      "Ġquestion": 4906,
      "ĠìŀĲìĭłìĿĺ": 4907,
      "Ġ90": 4908,
      "app": 4909,
      "Ġprotection": 4910,
      "ĠëĦ¤": 4911,
      "Ġcurrently": 4912,
      "Ġnature": 4913,
      "Ġonce": 4914,
      "Ġê°ľë³Ħ": 4915,
      "Ġsubstrate": 4916,
      "Ġìĭ¶ìĬµëĭĪëĭ¤": 4917,
      "íĿ¡": 4918,
      "Ġì¶Ķì§Ħ": 4919,
      "Ġmass": 4920,
      "ĠìĹĨìĹĪëĭ¤": 4921,
      "Ġground": 4922,
      "Ġíļ¨ìĨĮ": 4923,
      "ìŀĲìĹĲê²Į": 4924,
      "Ġë³´ìľł": 4925,
      "ìĿ´íģ¬": 4926,
      "Ġtheory": 4927,
      "ë²ķìĿĦ": 4928,
      "Ġê¸°íĽĦ": 4929,
      "sequ": 4930,
      "Ġìłľê³µíķĺëĬĶ": 4931,
      "Ġemphas": 4932,
      "ĠBus": 4933,
      "Ġprec": 4934,
      "êµ¬íķĺê³ł": 4935,
      "Ġsystems": 4936,
      "Ġcorporate": 4937,
      "ĠìĥĿì¡´": 4938,
      "ìŀĳìļ©": 4939,
      "Ġê¸°íļĮ": 4940,
      "ging": 4941,
      "Ġlearn": 4942,
      "Ġê¸´": 4943,
      "ìĿ¸ìĿĢ": 4944,
      "'ve": 4945,
      "Ġprepared": 4946,
      "Ġê²ĥìĿ´ëĿ¼ê³ł": 4947,
      "Ġìŀ¥ê¸°": 4948,
      "ìĤ¬ìĻĢ": 4949,
      "Ġì¡°ìłķ": 4950,
      "ĠëĮĢíĨµëł¹": 4951,
      "ë¬¼ìĿĢ": 4952,
      "ĠìĪĺì¶ľ": 4953,
      "ilitary": 4954,
      "ĠíĻ©": 4955,
      "ì§Ģë§ī": 4956,
      "ĠìĿ´ìĿµ": 4957,
      "ëªħìĿĦ": 4958,
      "Ġìļ°ëł¤": 4959,
      "Ġì±ħìŀĦ": 4960,
      "Ġclimate": 4961,
      "Ġcollect": 4962,
      "Ġcolor": 4963,
      "ì§ĢëĤľ": 4964,
      "Ġtoday": 4965,
      "ences": 4966,
      "íĭ±": 4967,
      "ership": 4968,
      "ĠìľłëŁ½": 4969,
      "ìĭľì¼ľ": 4970,
      "Ġìĸ¼ë§Ī": 4971,
      "oot": 4972,
      "Ġalways": 4973,
      "Ġisolates": 4974,
      "ipment": 4975,
      "empt": 4976,
      "Ġregulations": 4977,
      "ĠëĮĢì¡°": 4978,
      "Ġexpressed": 4979,
      "Ġconsumption": 4980,
      "íĺģ": 4981,
      "ĠìłĦíĨµ": 4982,
      "Ġworkers": 4983,
      "ST": 4984,
      "',": 4985,
      "Ġë§¤ê°ľ": 4986,
      "Ġpredict": 4987,
      "Ġvariables": 4988,
      "Ġneeded": 4989,
      "Ġrecent": 4990,
      "by": 4991,
      "ĠìĿĮìĦ±": 4992,
      "ĠìºĲ": 4993,
      "Ġcam": 4994,
      "ĠíĻĺìŀĲìĿĺ": 4995,
      "Ġplant": 4996,
      "Ġturn": 4997,
      "Ġsymptoms": 4998,
      "meric": 4999,
      "Ġhim": 5000,
      "Ġcris": 5001,
      "Ġopportun": 5002,
      "Ġreflect": 5003,
      "Ġìī½ê²Į": 5004,
      "Ġrestaur": 5005,
      "ìĭłìĿĦ": 5006,
      "ĠìĦ¬": 5007,
      "Ġshall": 5008,
      "íĸĪëįĺ": 5009,
      "Ġmax": 5010,
      "êµŃìĿĢ": 5011,
      "ĠRNA": 5012,
      "Ġ130": 5013,
      "Ġëĭ¤ìĿĮê³¼": 5014,
      "ìľ¼ë¡ľëĬĶ": 5015,
      "pir": 5016,
      "pro": 5017,
      "Ġmovement": 5018,
      "ì§ĢìĹŃ": 5019,
      "ĠìĿĺë¬´": 5020,
      "ì½ľ": 5021,
      "Ġexperien": 5022,
      "Ġlittle": 5023,
      "ously": 5024,
      "íļĮìĿĺ": 5025,
      "ĠAg": 5026,
      "ìĽĲìĹĲ": 5027,
      "Ġstrengthen": 5028,
      "ither": 5029,
      "Ġneeds": 5030,
      "ëª¨ëĵł": 5031,
      "ties": 5032,
      "Ġcosts": 5033,
      "ĠìŀĳìĿĢ": 5034,
      "Ġcancer": 5035,
      "įìłķ": 5036,
      "tage": 5037,
      "Ġê°Ģì¡±": 5038,
      "Ġìłĳì¢ħ": 5039,
      "Ġsuit": 5040,
      "Ġì§Ģìłģ": 5041,
      "ìĬ¤íĦ°": 5042,
      "Ġcit": 5043,
      "Ġsomet": 5044,
      "ìĭľíĤ¨": 5045,
      "Ġfar": 5046,
      "Ġentire": 5047,
      "Ġdate": 5048,
      "artment": 5049,
      "ìĪĻ": 5050,
      "pending": 5051,
      "inated": 5052,
      "ìłĦìŀĲ": 5053,
      "era": 5054,
      "Ġstress": 5055,
      "ĠQ": 5056,
      "Ġìľłë°ľ": 5057,
      "Ġì°©": 5058,
      "Ġíĺģ": 5059,
      "Ġcollected": 5060,
      "lation": 5061,
      "Ġshape": 5062,
      "ĠPlaintiff": 5063,
      "Ġëª°": 5064,
      "Ġgreater": 5065,
      "Ġíı´": 5066,
      "ìĸ´ëĤĺ": 5067,
      "Ġvillage": 5068,
      "Ġjoint": 5069,
      "ĠíĻľìĦ±íĻĶ": 5070,
      "Ġreduction": 5071,
      "Ġoverse": 5072,
      "Ġcapac": 5073,
      "ĠìĽĲê³ł": 5074,
      "anced": 5075,
      "sec": 5076,
      "Ġla": 5077,
      "isms": 5078,
      "Ġê´Ģê³Ħë¥¼": 5079,
      "ĠìĥĿë¬¼": 5080,
      "Ġoften": 5081,
      "be": 5082,
      "Ġ2015": 5083,
      "Ġê¼": 5084,
      "ëł´": 5085,
      "Ġlater": 5086,
      "ìŀĲëĵ¤ìĿĢ": 5087,
      "abol": 5088,
      "Ġê°Ļëĭ¤": 5089,
      "êµ¬ë¥¼": 5090,
      "Ġsolution": 5091,
      "Ġ-": 5092,
      "ĠìķĬëĭ¤": 5093,
      "Ġproport": 5094,
      "Ġì§ĳì¤ĳ": 5095,
      "Ġvacc": 5096,
      "reg": 5097,
      "ĠìŀĪê²Į": 5098,
      "Ġessential": 5099,
      "lier": 5100,
      "Ġëħ¸ëł¥": 5101,
      "Ġmight": 5102,
      "Ġbar": 5103,
      "rative": 5104,
      "Ġêµ¬íĺĦ": 5105,
      "Ġíĺ¼íķ©": 5106,
      "ĠëĲ©ëĭĪëĭ¤": 5107,
      "Ġì²¨ê°Ģ": 5108,
      "Ġëĸ¨ìĸ´": 5109,
      "ëįĶëĿ¼ëıĦ": 5110,
      "ìŀĲë¡ľ": 5111,
      "By": 5112,
      "ë§¥": 5113,
      "sy": 5114,
      "Ġdivided": 5115,
      "Ġíķ¨ìľł": 5116,
      "Ġtrend": 5117,
      "oles": 5118,
      "Ġë¸Ķë¡Ŀ": 5119,
      "ĠëĮĢì²´": 5120,
      "Ġskin": 5121,
      "Ġfeed": 5122,
      "Ġìłľê³µíķł": 5123,
      "ĠìŀĲê¸°": 5124,
      "Ġhousehold": 5125,
      "Ġë©Ķëª¨ë¦¬": 5126,
      "ene": 5127,
      "Ġë°ĺë©´": 5128,
      "ìĿ´ê²ĥìĿĢ": 5129,
      "Ġopin": 5130,
      "Ġaction": 5131,
      "Ġmultiple": 5132,
      "Here": 5133,
      "Ġì¥Ĳ": 5134,
      "íķµ": 5135,
      "oo": 5136,
      "Ġdelivery": 5137,
      "Ġillust": 5138,
      "ĠëıĻìĭľìĹĲ": 5139,
      "Ġprepar": 5140,
      "Ġguarant": 5141,
      "Ex": 5142,
      "Ġêµ¬ì¶ķ": 5143,
      "ĠëĤ´ìĹĲìĦľ": 5144,
      "ĠìĪĺìļĶ": 5145,
      "Ġë°°ìĨ¡": 5146,
      "come": 5147,
      "Ġ31": 5148,
      "Ġbor": 5149,
      "Ġìĭ¤ìłľ": 5150,
      "ë§Īëĭ¤": 5151,
      "ľĺ": 5152,
      "OK": 5153,
      "Ġrepresentative": 5154,
      "Ġpen": 5155,
      "aily": 5156,
      "Ġprices": 5157,
      "¾¸": 5158,
      "Ġë¹Ħë¡¯": 5159,
      "ĠíļĮë¡ľ": 5160,
      "Ġmach": 5161,
      "Ġhours": 5162,
      "Ġìµľì¢ħ": 5163,
      "ĠUniversity": 5164,
      "Ġgeneration": 5165,
      "Ġanti": 5166,
      "Ġupp": 5167,
      "hesis": 5168,
      "Ġdepending": 5169,
      "thing": 5170,
      "Ġìłķë§Ĳ": 5171,
      "ĠìĹ°êµ¬ìĿĺ": 5172,
      "Ġoil": 5173,
      "ĠGerm": 5174,
      "Ġassess": 5175,
      "ires": 5176,
      "Ġê¸°ìĹ¬": 5177,
      "ì£¼ëĬĶ": 5178,
      "ìľĦìĽĲíļĮ": 5179,
      "Ġcompetition": 5180,
      "Ġpaper": 5181,
      "Ġmainly": 5182,
      "Ġtraditional": 5183,
      "ĠìĿ´ë¦Ħ": 5184,
      "ength": 5185,
      "Ġachieve": 5186,
      "Ġ150": 5187,
      "cast": 5188,
      "hol": 5189,
      "Ġinfluence": 5190,
      "Ġë¶Ħíķ´": 5191,
      "ëĲĺë©°": 5192,
      "Ġcarbon": 5193,
      "Ġì¤ĳìĭ¬ìľ¼ë¡ľ": 5194,
      "igure": 5195,
      "íĿ¥": 5196,
      "Ġë¶Īêµ¬íķĺê³ł": 5197,
      "ĠíĥĲ": 5198,
      "Ġìĺģìĸĳ": 5199,
      "Ġdiseases": 5200,
      "ìĭľì¼°ëĭ¤": 5201,
      "ocks": 5202,
      "Ġëĭ¬ë¦¬": 5203,
      "ĠìĹ¬ë¶Ģë¥¼": 5204,
      "omy": 5205,
      "ĠWorld": 5206,
      "ê´Ģë¦¬": 5207,
      "ëĩ¨": 5208,
      "Ġinternal": 5209,
      "ĠìĻ¸êµŃ": 5210,
      "Ġrecognition": 5211,
      "eth": 5212,
      "itude": 5213,
      "Ġtested": 5214,
      "Ġê¸įìłķ": 5215,
      "ĠìĹĦ": 5216,
      "ĠíĹĪìļ©": 5217,
      "Ġadvant": 5218,
      "ott": 5219,
      "iveness": 5220,
      "ìĻĶëĭ¤": 5221,
      "Ġdetection": 5222,
      "ë³Ħë¡ľ": 5223,
      "Ġoutside": 5224,
      "Ġmess": 5225,
      "Ġprocedure": 5226,
      "Among": 5227,
      "ëł¸": 5228,
      "ensity": 5229,
      "ĠíĶ¼ë¶Ģ": 5230,
      "ĠìķłíĶĮë¦¬ì¼ĢìĿ´ìħĺ": 5231,
      "ĠìĬ¤ë§ĪíĬ¸": 5232,
      "ogenes": 5233,
      "Ġë³´ê±´": 5234,
      "ames": 5235,
      "Ġëĭ¨ìĿ¼": 5236,
      "Ġquestions": 5237,
      "Ġdegree": 5238,
      "Ġreceiving": 5239,
      "ecause": 5240,
      "Ġactual": 5241,
      "ĠìĦ±ê³¼": 5242,
      "tery": 5243,
      "Ġì°¨ì§Ģ": 5244,
      "ì§ĢíĦ¸": 5245,
      "Ġvoltage": 5246,
      "BS": 5247,
      "Ġoverseas": 5248,
      "Ġë£": 5249,
      "Ġexchange": 5250,
      "Ġupper": 5251,
      "ìŀ¥ìĹĲ": 5252,
      "Ġoperating": 5253,
      "ĠìĪĺìĪł": 5254,
      "cular": 5255,
      "vant": 5256,
      "ĠìĶ": 5257,
      "inding": 5258,
      "Ġquick": 5259,
      "Is": 5260,
      "%.": 5261,
      "Ġissues": 5262,
      "ĠìķĮëł¤ìł¸": 5263,
      "cel": 5264,
      "ìŀĲëĵ¤ìĿ´": 5265,
      "Ġë°©ì§Ģ": 5266,
      "ĠìĤ¬ìļ©ìŀĲìĿĺ": 5267,
      "ĠìĿĺìĤ¬": 5268,
      "DP": 5269,
      "ĠìĿ´ìĹĲ": 5270,
      "Ġë³´ìĺĢëĭ¤": 5271,
      "Ġê´Ģëł¨ìĿ´": 5272,
      "Ġproteins": 5273,
      "ĠìĤ¬ìļ©íķĺëĬĶ": 5274,
      "Ġindustrial": 5275,
      "Ġì¤ĳìķĻ": 5276,
      "bor": 5277,
      "ìķŀ": 5278,
      "Ġê°ĲìĤ¬íķ©ëĭĪëĭ¤": 5279,
      "ê¸°ìĪł": 5280,
      "Ġë¶Ģìłķ": 5281,
      "Ġaway": 5282,
      "Ġê²Ģìĥī": 5283,
      "astic": 5284,
      "Ġindex": 5285,
      "Ġìłľê¸°": 5286,
      "Ġcrisis": 5287,
      "Ġìĭłì²Ń": 5288,
      "Ġì¢Į": 5289,
      "Ġcou": 5290,
      "ê°ĦìĿĺ": 5291,
      "Ġëıħë¦½": 5292,
      "itutional": 5293,
      "Ġë¯¼ê°Ĳ": 5294,
      "Ġcustomer": 5295,
      "ha": 5296,
      "Ġintroduced": 5297,
      "Ġê²½ìĺģ": 5298,
      "ĠíĴĪì§Ī": 5299,
      "ĠìĹ¬ìłĦíŀĪ": 5300,
      "ĠYe": 5301,
      "urs": 5302,
      "angu": 5303,
      "ìłľìĹĲ": 5304,
      "type": 5305,
      "position": 5306,
      "ĠëŃ": 5307,
      "cal": 5308,
      "Ġproviding": 5309,
      "Ġmode": 5310,
      "Ġtable": 5311,
      "Ġê°Ģìł¸": 5312,
      "Ġeasily": 5313,
      "ched": 5314,
      "ensive": 5315,
      "Ġcompens": 5316,
      "ĠEx": 5317,
      "ĠìĪĺìĿµ": 5318,
      "Then": 5319,
      "Ġsequence": 5320,
      "Ġsurv": 5321,
      "íķ´ìļĶ": 5322,
      "Ġrevealed": 5323,
      "ĠíĨµê³Ħ": 5324,
      "Ġface": 5325,
      "ëħĦëĮĢ": 5326,
      "ìłĲìĹĲìĦľ": 5327,
      "atus": 5328,
      "ids": 5329,
      "Ġorganization": 5330,
      "ĠìĽĲì¹Ļ": 5331,
      "ĠìĿ¼ì¹ĺ": 5332,
      "Because": 5333,
      "Ġappropriate": 5334,
      "ĠëĨĴìķĦ": 5335,
      "ĠëĨĵ": 5336,
      "Ġíĺ¹": 5337,
      "ìĿ´ìĺ¤": 5338,
      "Ġtoward": 5339,
      "ë©ĶëĿ¼": 5340,
      "ĠëĮĢìŀ¥ê·ł": 5341,
      "Ġframe": 5342,
      "Ġevidence": 5343,
      "anks": 5344,
      "Ġëħ¹": 5345,
      "Ġcalculated": 5346,
      "Ġìĺ¤ìĹ¼": 5347,
      "cription": 5348,
      "Ġimplemented": 5349,
      "ĠìĸĳìĦ±": 5350,
      "ĠëĤ©": 5351,
      "Ġsynt": 5352,
      "First": 5353,
      "ĠíĺĦìĭ¤": 5354,
      "ĠCity": 5355,
      "Ġgreen": 5356,
      "Ġenh": 5357,
      "Ġê²ĥê³¼": 5358,
      "isions": 5359,
      "Ġì§ĪíĻĺ": 5360,
      "ĠìĿĺì¡´": 5361,
      "ìĿ´ê¸°": 5362,
      "Ġvariable": 5363,
      "Ġkeep": 5364,
      "ĠëĮĢë¹Ħ": 5365,
      "Ġmilitary": 5366,
      "PA": 5367,
      "irus": 5368,
      "Ġíķµìĭ¬": 5369,
      "íĺķìĿĦ": 5370,
      "ëĭ¤ìĿĮ": 5371,
      "ĠHealth": 5372,
      "Ġmice": 5373,
      "Ġimmedi": 5374,
      "ĠìĪĺëĬĶ": 5375,
      "ë²¨": 5376,
      "ots": 5377,
      "Ġaccur": 5378,
      "Of": 5379,
      "Ġexcept": 5380,
      "ìĤ°ìĿĦ": 5381,
      "ê°Ģë¥¼": 5382,
      "ĠëĤ´ì§Ģ": 5383,
      "ë¶ĦìĦĿ": 5384,
      "ëĲĺê¸°": 5385,
      "íı¼": 5386,
      "íĹĮ": 5387,
      "Ġmiddle": 5388,
      "ĠìĿ´ìłĦìĹĲ": 5389,
      "Ġê¸°ë°ĺìľ¼ë¡ľ": 5390,
      "ë¦Ń": 5391,
      "Ġnews": 5392,
      "Ġchem": 5393,
      "emic": 5394,
      "Ġ2018": 5395,
      "Ġë³´ìŀ¥": 5396,
      "ìĬ¬": 5397,
      "Ġexpect": 5398,
      "ĠìĨĮìľł": 5399,
      "ulate": 5400,
      "Ġì°¾ìķĦ": 5401,
      "ìĦ¼íĦ°": 5402,
      "Ġê·¸ëŀĺ": 5403,
      "ĠìłľíĴĪìĿĢ": 5404,
      "Ġëª¨ìĬµ": 5405,
      "íİĺìĿ´ìĬ¤": 5406,
      "Ġì»´íĵ¨íĦ°": 5407,
      "ĠPresident": 5408,
      "ĠëĤĺíĥĢëĤ´ëĬĶ": 5409,
      "rations": 5410,
      "ĠìłĦë§Ŀ": 5411,
      "90": 5412,
      "Ġthought": 5413,
      "go": 5414,
      "Ġhighest": 5415,
      "ello": 5416,
      "Ġì´īì§Ħ": 5417,
      "ê°Ģê°Ģ": 5418,
      "Ġì§Ģê¸ī": 5419,
      "Ġíļ¨ê³¼ê°Ģ": 5420,
      "Ġë°ĶëŀĮ": 5421,
      "ëį°ìĿ´íĦ°": 5422,
      "reme": 5423,
      "Ġoverall": 5424,
      "ling": 5425,
      "300": 5426,
      "Ġë³ĢíĻĶë¥¼": 5427,
      "Ġagric": 5428,
      "ë¯¸ëĵľ": 5429,
      "Ġcredit": 5430,
      "ìłĢíĿ¬ëĬĶ": 5431,
      "ë¦¬ìĺ¤": 5432,
      "íĸĪìĿĦ": 5433,
      "Ġrefer": 5434,
      "ĠìĤ¶": 5435,
      "Ġinfected": 5436,
      "ĠìĦłìĪĺ": 5437,
      "Ġpredic": 5438,
      "Ġcross": 5439,
      "ê·¸ëŀĺìĦľ": 5440,
      "ĠAmeric": 5441,
      "Ġì£¼ë¯¼": 5442,
      "Ġexerc": 5443,
      "Ġëĵ±ë¡Ŀ": 5444,
      "Ġexplained": 5445,
      "Ġê°Ĳëıħ": 5446,
      "Ġliving": 5447,
      "ibility": 5448,
      "ìĦ¸ë¥¼": 5449,
      "Ġìĺ¨ëĿ¼ìĿ¸": 5450,
      "ĠíĻķìŀ¥": 5451,
      "Ġconnection": 5452,
      "Ġregions": 5453,
      "ĠìĿ´ë¡ł": 5454,
      "Ġclean": 5455,
      "ê¸°ìĻĢ": 5456,
      "ĠìĽĶ": 5457,
      "Ġparents": 5458,
      "ĠíĽĦìĹĲ": 5459,
      "Ġconnect": 5460,
      "Ġìŀ¥ìķł": 5461,
      "'d": 5462,
      "ëįķ": 5463,
      "ĠìĿĢíĸī": 5464,
      "ìłĦìĹĲ": 5465,
      "Ġwat": 5466,
      "ĠìĿĺê²¬": 5467,
      "ember": 5468,
      "Ġfunctions": 5469,
      "íĸĪê³ł": 5470,
      "Ġcreate": 5471,
      "ĠCour": 5472,
      "Ġliqu": 5473,
      "ì¤Ħ": 5474,
      "Ġê°ĢëĬ¥íķĺëĭ¤": 5475,
      "ĠëıĻë¬¼": 5476,
      "aut": 5477,
      "Ġ35": 5478,
      "ìĭľìĺ¤": 5479,
      "ì¦ĿìĿĦ": 5480,
      "Ġeducational": 5481,
      "íĢ": 5482,
      "ëĭ¨ê³Ħ": 5483,
      "ĠBank": 5484,
      "ĠìŀĳíĴĪ": 5485,
      "Ġx": 5486,
      "Ġbacterial": 5487,
      "rans": 5488,
      "ĠEn": 5489,
      "ises": 5490,
      "Ġfat": 5491,
      "RW": 5492,
      "ë²¤íĬ¸": 5493,
      "oly": 5494,
      "ĠìĹ¬ê¸°": 5495,
      "ĸìĹĲ": 5496,
      "ĠíĶĦëłĪ": 5497,
      "ĠIs": 5498,
      "ĠìĹ°êµ¬ê°Ģ": 5499,
      "Ġoccurred": 5500,
      "Ġìłĳì´ī": 5501,
      "Ġdaily": 5502,
      "ĠUN": 5503,
      "Ġdest": 5504,
      "ìĬ¤ê°Ģ": 5505,
      "Ġíı¬íķ¨íķľ": 5506,
      "ĠëĮĢíķ´ìĦľ": 5507,
      "Ġinstitutions": 5508,
      "ĠìĺĪìķ½": 5509,
      "ocal": 5510,
      "ĠíĻķìĿ¸íķł": 5511,
      "Ġsurvey": 5512,
      "Ġë¶ĢëıĻìĤ°": 5513,
      "Ġëĭ¹ìĭľ": 5514,
      "Ġroad": 5515,
      "Ġoblig": 5516,
      "ê·ľëª¨": 5517,
      "iet": 5518,
      "Ġdisplayed": 5519,
      "Ġìĭľê°ĦìĿ´": 5520,
      "Ġnuclear": 5521,
      "ë¿Ĳë§Į": 5522,
      "ĠHy": 5523,
      "Ġdecreased": 5524,
      "Ġgradu": 5525,
      "Ġê³µìłķ": 5526,
      "Ġ2016": 5527,
      "íķĺëĬĶëį°": 5528,
      "ë¥´ëĬĶ": 5529,
      "130": 5530,
      "Ġitself": 5531,
      "Ġselection": 5532,
      "êµ¬ìĿĺ": 5533,
      "ĠìĽĢ": 5534,
      "Ġ198": 5535,
      "ĠSec": 5536,
      "íĺĢ": 5537,
      "Ġë³ĢìĪĺ": 5538,
      "ills": 5539,
      "anwh": 5540,
      "Ġred": 5541,
      "aching": 5542,
      "Ġcarried": 5543,
      "Ġcentral": 5544,
      "Ġcreated": 5545,
      "aps": 5546,
      "Ġtaking": 5547,
      "ĠìĿ´ë©Ķ": 5548,
      "ĠThe": 5549,
      "Ġë°°ì¶ľ": 5550,
      "Ġëĭ¨ìľĦ": 5551,
      "fect": 5552,
      "Ġkind": 5553,
      "ìĬ¤ë¡ľ": 5554,
      "Ġhighly": 5555,
      "ìĤ°ìĹ¼": 5556,
      "Ġintroduce": 5557,
      "ĠìłĢëĬĶ": 5558,
      "Ġê³łìłķ": 5559,
      "Ġìĸ¸ê¸ī": 5560,
      "Ġinnov": 5561,
      "ê¹Ģ": 5562,
      "Ġreserv": 5563,
      "ê¸Īìľµ": 5564,
      "illed": 5565,
      "ĠíĻĶë©´": 5566,
      "ìĭľëĬĶ": 5567,
      "ĠíĹ¤": 5568,
      "Ġcommercial": 5569,
      "Ġaddress": 5570,
      "Ġë³ĢëıĻ": 5571,
      "ê²°ê³¼": 5572,
      "ë¶Ģëª¨": 5573,
      "man": 5574,
      "Ġequipment": 5575,
      "Ġoriginal": 5576,
      "RS": 5577,
      "Ġëĭµ": 5578,
      "Ġelectric": 5579,
      "ìłĿíĬ¸": 5580,
      "ìĤ°ìĹħ": 5581,
      "Ġíķľëĭ¤ëĬĶ": 5582,
      "Ġparticipate": 5583,
      "ĠAI": 5584,
      "Ġeat": 5585,
      "Ġ2019": 5586,
      "ps": 5587,
      "ulum": 5588,
      "Ġcomputer": 5589,
      "Ġconven": 5590,
      "Ġvoice": 5591,
      "ìģ": 5592,
      "Ġtreated": 5593,
      "ffer": 5594,
      "Ġusers": 5595,
      "ĠìķĬìķĦ": 5596,
      "Ġë¨¼ìłĢ": 5597,
      "ĠìĿĺë¯¸íķľëĭ¤": 5598,
      "Ġtaken": 5599,
      "Ġdefined": 5600,
      "ìĦłìĿĦ": 5601,
      "ë®": 5602,
      "ĠFin": 5603,
      "time": 5604,
      "ĠíĨµíķĺìĹ¬": 5605,
      "ì¢ĭ": 5606,
      "Ġtransmission": 5607,
      "Ġë³´ë©´": 5608,
      "ĠëĮĢíķ´ìĦľëĬĶ": 5609,
      "ĠCourt": 5610,
      "Ġresources": 5611,
      "Ġchann": 5612,
      "Ġwind": 5613,
      "ead": 5614,
      "jin": 5615,
      "ë¯¸êµŃ": 5616,
      "ĠìĦŃ": 5617,
      "ĠÎ¼": 5618,
      "ìĤ°íĻĶ": 5619,
      "olit": 5620,
      "ìĤ°ìĿĺ": 5621,
      "Ġpaid": 5622,
      "Ġcontinue": 5623,
      "airm": 5624,
      "Ġinitial": 5625,
      "Ġopening": 5626,
      "gor": 5627,
      "Ġê²½ìļ°ìĹĲ": 5628,
      "Ġintention": 5629,
      "ague": 5630,
      "com": 5631,
      "ams": 5632,
      "ĠìĤ¬ë¬´": 5633,
      "ìĻĢìĿĺ": 5634,
      "ë¦¬ì¹´": 5635,
      "Ġnut": 5636,
      "rating": 5637,
      "Ġcho": 5638,
      "Ġë³´ìĹ¬ì¤Ģëĭ¤": 5639,
      "Ġplayers": 5640,
      "Ġplat": 5641,
      "Ġlangu": 5642,
      "Ġíı¬íķ¨ëĲľ": 5643,
      "ĠNo": 5644,
      "íĸīìľĦ": 5645,
      "ball": 5646,
      "Ġê´Ģëł¨íķĺìĹ¬": 5647,
      "Ġsaying": 5648,
      "Ġë°ĽëĬĶ": 5649,
      "Ġì¡°íķ©": 5650,
      "Ġbuilt": 5651,
      "elfare": 5652,
      "Ġyet": 5653,
      "Ġidentify": 5654,
      "Ġresidents": 5655,
      "Ġê²ĥëıĦ": 5656,
      "Ġadding": 5657,
      "Ġì¦Ŀê±°": 5658,
      "ĠKRW": 5659,
      "amm": 5660,
      "ĠëĤ´ìļ©ìĿĦ": 5661,
      "ĠëŁ¬": 5662,
      "Ġtourism": 5663,
      "Ġë°ĽìĿĦ": 5664,
      "Ġlat": 5665,
      "ë¨¼": 5666,
      "ĠìłĲìĿĦ": 5667,
      "Ġfrequency": 5668,
      "Ġ2017": 5669,
      "ë³ĳìĽĲ": 5670,
      "ĠMountain": 5671,
      "Ġìĭ¬ê°ģ": 5672,
      "ëĥĲ": 5673,
      "ì§Ģì§Ģ": 5674,
      "Ġê¹Ĭ": 5675,
      "ê³Ħìķ½": 5676,
      "Ġë°©ìĭĿìľ¼ë¡ľ": 5677,
      "ê·¸ëłĩ": 5678,
      "Ġemployees": 5679,
      "íķĺê²łìĬµëĭĪëĭ¤": 5680,
      "ĠìĽĢì§ģ": 5681,
      "ĠìĭĿë¬¼": 5682,
      "Ġë¶Ħíı¬": 5683,
      "¬ìĺģ": 5684,
      "itis": 5685,
      "Ġreaction": 5686,
      "Ġextra": 5687,
      "Ġimproved": 5688,
      "ĠëĬ¥ëł¥": 5689,
      "ìĿ¼ë¡ľ": 5690,
      "Ġìŀłìŀ¬": 5691,
      "ĠìĿ´ëĤł": 5692,
      "iï¬ģ": 5693,
      "ĠìĤ¬ì§Ħ": 5694,
      "Ġë´ī": 5695,
      "ìĭŃìĭľìĺ¤": 5696,
      "ë§ĮìĿĦ": 5697,
      "ĠíĬ¹ìĦ±ìĿĦ": 5698,
      "Ġunderstanding": 5699,
      "pat": 5700,
      "lor": 5701,
      "ì°¸": 5702,
      "airman": 5703,
      "ev": 5704,
      "Ġdecrease": 5705,
      "Ġë°ĺë³µ": 5706,
      "ì¢Į": 5707,
      "Ġactively": 5708,
      "Ġtook": 5709,
      "Ġrot": 5710,
      "Ġlegis": 5711,
      "Ġëľ": 5712,
      "Ġteachers": 5713,
      "Ġdoll": 5714,
      "ĠìŀĪëĬĶëį°": 5715,
      "ê²ĮìļĶ": 5716,
      "ìħĢ": 5717,
      "ĠëĤĺíĥĢëĤĺ": 5718,
      "Ġauthorities": 5719,
      "Ġdou": 5720,
      "Ġwire": 5721,
      "ĠìłĦìķķ": 5722,
      "Ġguid": 5723,
      "Ġëĭ´ëĭ¹": 5724,
      "EA": 5725,
      "ĠìĿĮìķħ": 5726,
      "íĶ½": 5727,
      "arily": 5728,
      "ëĭ¬ëŁ¬": 5729,
      "Ġíĸīìłķ": 5730,
      "Ġdigital": 5731,
      "Con": 5732,
      "enc": 5733,
      "ino": 5734,
      "Hello": 5735,
      "íĤ¹": 5736,
      "Ġìļ°ìĦł": 5737,
      "ĠìħĢ": 5738,
      "Ġaspect": 5739,
      "Ġíĩ´": 5740,
      "ĠëĤ´ìĹĲ": 5741,
      "Ġmetabol": 5742,
      "ìłģìĿ´ê³ł": 5743,
      "Ġmembr": 5744,
      "pective": 5745,
      "imately": 5746,
      "vest": 5747,
      "ores": 5748,
      "Ġphase": 5749,
      "fort": 5750,
      "Ġê³¡": 5751,
      "íĻĺê²½": 5752,
      "Ġrespond": 5753,
      "ìĬµëĭĪê¹Į": 5754,
      "Ġhousing": 5755,
      "Ĳëĭ¤": 5756,
      "Ġhom": 5757,
      "ĠTable": 5758,
      "ëĭĽ": 5759,
      "orpor": 5760,
      "ìĶĢ": 5761,
      "Ġë°ľëªħ": 5762,
      "íĴį": 5763,
      "iate": 5764,
      "Ġ400": 5765,
      "ground": 5766,
      "version": 5767,
      "ĠìĹ¬ìĦ±": 5768,
      "Ġestimated": 5769,
      "ĠìĽ¹": 5770,
      "Ģë¡ľë²Į": 5771,
      "From": 5772,
      "osing": 5773,
      "Ġanim": 5774,
      "Ġefficiency": 5775,
      "ĠìĿĳëĭµ": 5776,
      "rapy": 5777,
      "ãĢ": 5778,
      "eum": 5779,
      "Ġâ": 5780,
      "Ġeither": 5781,
      "ìļķ": 5782,
      "year": 5783,
      "Ġbecame": 5784,
      "ĠEuropean": 5785,
      "Ġë¦¬ìĬ¤": 5786,
      "íĺ¼": 5787,
      "ëŁīìĿĢ": 5788,
      "ìķĦëĭĪ": 5789,
      "Ġreality": 5790,
      "estival": 5791,
      "Ġdebt": 5792,
      "Ġ$": 5793,
      "ìĹĨìĿ´": 5794,
      "Ġê¸°ìĹħìĿĺ": 5795,
      "ì§Ģê¸Ī": 5796,
      "Ġstrategy": 5797,
      "OS": 5798,
      "Ġgenerate": 5799,
      "ìĨĮëĵĿ": 5800,
      "Ġpopular": 5801,
      "Ġinterface": 5802,
      "myeon": 5803,
      "Ġspeed": 5804,
      "ëĿ¼ì§Ī": 5805,
      "íĻĶìĹĲ": 5806,
      "opy": 5807,
      "Ġgoal": 5808,
      "ĠìĪĺìŀħ": 5809,
      "rain": 5810,
      "Ġfem": 5811,
      "Ġsure": 5812,
      "500": 5813,
      "ĠìŀĲë³¸": 5814,
      "Ġadvance": 5815,
      "ĠRes": 5816,
      "Ġhold": 5817,
      "ìĶ¬": 5818,
      "Ġhyp": 5819,
      "Ġpolicies": 5820,
      "Ġfunds": 5821,
      "Ġemot": 5822,
      "íĸĪì§Ģë§Į": 5823,
      "ĠìĦĿ": 5824,
      "Ġë°ľìĥĿíķĺëĬĶ": 5825,
      "ificial": 5826,
      "sw": 5827,
      "Ġê¸°ì´ĪíķĺìĹ¬": 5828,
      "Ġë¯¸ëŀĺ": 5829,
      "Ġì²´ê³Ħ": 5830,
      "Ġregular": 5831,
      "Ġsector": 5832,
      "Ġfish": 5833,
      "ĠíĹĮ": 5834,
      "ES": 5835,
      "Ġlive": 5836,
      "pecially": 5837,
      "Ġbrand": 5838,
      "Ġbegin": 5839,
      "\",": 5840,
      "Ġê¸°íĥĢ": 5841,
      "Ġì£¼ìĭĿ": 5842,
      "ê·¸ëŁ¼": 5843,
      "Ġê·¸ë¦¼": 5844,
      "Ġprem": 5845,
      "Ġfollows": 5846,
      "ê´´": 5847,
      "ìĹĪê³ł": 5848,
      "ĠCD": 5849,
      "Ġvirtual": 5850,
      "Ġdistance": 5851,
      "sel": 5852,
      "Ġë¹¨": 5853,
      "ĠìłĲìĹĲìĦľ": 5854,
      "Ġreleased": 5855,
      "Ġë°ľëĭ¬": 5856,
      "ĠìĿ´ë²¤íĬ¸": 5857,
      "Ġled": 5858,
      "Each": 5859,
      "Ġì§Ģìłķ": 5860,
      "ĠìĬ¬": 5861,
      "itro": 5862,
      "íĻĶê°Ģ": 5863,
      "ëŀ«íı¼": 5864,
      "Ġìĩ": 5865,
      "Ġinside": 5866,
      "ê°ĲìĿĦ": 5867,
      "Ġë³µíķ©": 5868,
      "Ġcover": 5869,
      "Ġìĸ´ë¦°": 5870,
      "ĠCo": 5871,
      "su": 5872,
      "Ġdeal": 5873,
      "Ġseparate": 5874,
      "Ġcontroller": 5875,
      "Ġtox": 5876,
      "Ġtransform": 5877,
      "ë¥łìĿ´": 5878,
      "Ġëª¨ëħ¸": 5879,
      "Ġìŀħì¦Ŀ": 5880,
      "Ġtom": 5881,
      "Ġsubjects": 5882,
      "Ġinvestigation": 5883,
      "ote": 5884,
      "Ġë¶ĢìľĦ": 5885,
      "Ġformer": 5886,
      "Ġplatform": 5887,
      "Ġë°Ķíĥķ": 5888,
      "íķĺê¸°ë¡ľ": 5889,
      "ìľ¨ìĿ´": 5890,
      "Ġê²ĮìŀĦ": 5891,
      "Ġì§ĢìĭĿ": 5892,
      "plic": 5893,
      "Ġcollection": 5894,
      "Ġê´": 5895,
      "Ġsense": 5896,
      "ĠMinister": 5897,
      "ĠìĨĲìĭ¤": 5898,
      "Ġcitiz": 5899,
      "Ġavoid": 5900,
      "ĠìĥģëĮĢìłģìľ¼ë¡ľ": 5901,
      "ëıĻìķĪ": 5902,
      "ĠBusan": 5903,
      "Ġstated": 5904,
      "ê²łëĭ¤": 5905,
      "Se": 5906,
      "ĠìĺĪìĪł": 5907,
      "ĠëªħíĻķ": 5908,
      "Ġìĭłê²½": 5909,
      "Ġothers": 5910,
      "Ġfinding": 5911,
      "Ġìĭłíĺ¸ë¥¼": 5912,
      "Ġcomposition": 5913,
      "ho": 5914,
      "ĠìĮ": 5915,
      "Ġmountain": 5916,
      "ëĭĲ": 5917,
      "Ġbal": 5918,
      "Ġfer": 5919,
      "Ġbenefits": 5920,
      "Ġdeveloping": 5921,
      "Ġì½ľ": 5922,
      "Ġtool": 5923,
      "vert": 5924,
      "atives": 5925,
      "Ġunique": 5926,
      "rd": 5927,
      "ëĥĪëĭ¤": 5928,
      "enses": 5929,
      "organ": 5930,
      "Ġëª¸": 5931,
      "ëł¬": 5932,
      "ë³´ëĭ¤ëĬĶ": 5933,
      "¨ìĶ¬": 5934,
      "ë¯¸ëħ¸": 5935,
      "Ġpractice": 5936,
      "Ġexclud": 5937,
      "ëĮĢìĿĺ": 5938,
      "ĠìłĦë°ĺ": 5939,
      "Ġdelay": 5940,
      "Ġargu": 5941,
      "Ġsetting": 5942,
      "ê²½ìłľ": 5943,
      "ĠíļĮìĿĺ": 5944,
      "Ġmagn": 5945,
      "ĠNa": 5946,
      "ë¶ĢìĿĺ": 5947,
      "embly": 5948,
      "ìķĦê°Ģ": 5949,
      "ĠìŀĪì§Ģ": 5950,
      "ì¤ĳêµŃ": 5951,
      "Some": 5952,
      "ë§İ": 5953,
      "ìłĦìĿĦ": 5954,
      "ìĽĲìľ¼ë¡ľ": 5955,
      "ĠCl": 5956,
      "ë¬¼ê´Ģ": 5957,
      "Ġproportion": 5958,
      "Ġengine": 5959,
      "Ġìĭľë¯¼": 5960,
      "Ġê±°ìĺĪìļĶ": 5961,
      "Ġë¶Ģíĥģ": 5962,
      "Ġliter": 5963,
      "Ġwr": 5964,
      "airs": 5965,
      "Ġult": 5966,
      "Ġshowing": 5967,
      "Ġprofit": 5968,
      "eria": 5969,
      "Ġaim": 5970,
      "ë²ķìĿĺ": 5971,
      "Ġtast": 5972,
      "Ġì§Īë¬¸": 5973,
      "des": 5974,
      "Ġìłľê°Ģ": 5975,
      "Ġsimple": 5976,
      "ament": 5977,
      "Ġì£¼ëª©": 5978,
      "Ġìĺ¬íķ´": 5979,
      "Ġmention": 5980,
      "Ġê²½íĸ¥": 5981,
      "Ġsevere": 5982,
      "Ġcomes": 5983,
      "Ġcompleted": 5984,
      "Ġestate": 5985,
      "ë¡ľëĬĶ": 5986,
      "ê²©ìĿĦ": 5987,
      "ëĲĺìĹĪê³ł": 5988,
      "íĦ°ë§ģ": 5989,
      "ĠíļĮë³µ": 5990,
      "wan": 5991,
      "Ġsil": 5992,
      "Ġpanel": 5993,
      "ton": 5994,
      "ĠëĮĢíķĻ": 5995,
      "ĠíĽ¨ìĶ¬": 5996,
      "iver": 5997,
      "Ġactually": 5998,
      "Ġë§ĲìĶĢ": 5999,
      "Ġê³¼ìłķìĿĦ": 6000,
      "ĠGo": 6001,
      "Ġë°Ľìķĺëĭ¤": 6002,
      "íĻľëıĻ": 6003,
      "íĬ¸ë¡ľ": 6004,
      "Ġrecommend": 6005,
      "Ġëªħëł¹": 6006,
      "ìĿ´ìħĺ": 6007,
      "ned": 6008,
      "Ġë°Ľê³ł": 6009,
      "ellig": 6010,
      "ĠëĦ£": 6011,
      "Ġphosph": 6012,
      "Ġë©Ķìĭľ": 6013,
      "ĠìĿ¸íĦ°íİĺìĿ´ìĬ¤": 6014,
      "ê°ľë°ľ": 6015,
      "ĠëĶĶì§ĢíĦ¸": 6016,
      "most": 6017,
      "Ġwild": 6018,
      "Ġìĭľê°ĦìĿĦ": 6019,
      "ë¶Ģë¥¼": 6020,
      "Ġfri": 6021,
      "ìĸ´ëĸ": 6022,
      "Ġëŀ": 6023,
      "Ġëĭ¨ìĪľ": 6024,
      "igation": 6025,
      "ë²ķìĿĢ": 6026,
      "Ġparticipation": 6027,
      "Ġmal": 6028,
      "ĠTV": 6029,
      "une": 6030,
      "Ġë¹Ħì¤ĳ": 6031,
      "Ġprefer": 6032,
      "Ġbegan": 6033,
      "ĠìŀĳëıĻ": 6034,
      "umn": 6035,
      "gun": 6036,
      "ëĬĶì§Ģ": 6037,
      "ì¤": 6038,
      "Ġpubl": 6039,
      "ields": 6040,
      "ift": 6041,
      "Ġë¯¸ìĥĿë¬¼": 6042,
      "ëĮĢíķľ": 6043,
      "ì¹ĺê°Ģ": 6044,
      "aratus": 6045,
      "26": 6046,
      "ĠíĬ¹ìĿ´": 6047,
      "Ġ2000": 6048,
      "ĠìĹ°êµ¬ë¥¼": 6049,
      "ëĦ¤ìĬ¤": 6050,
      "Ġê°Ģìŀħ": 6051,
      "Ġ48": 6052,
      "anch": 6053,
      "ê³¼ìłķ": 6054,
      "Ġapparatus": 6055,
      "Ġë§Įíģ¼": 6056,
      "avor": 6057,
      "cil": 6058,
      "Ġliquid": 6059,
      "ĠíĻĪ": 6060,
      "Ġevents": 6061,
      "Ġeth": 6062,
      "Ġproduce": 6063,
      "ĠìĦ±ë¶Ħ": 6064,
      "ji": 6065,
      "ĠíĮĶ": 6066,
      "ĠìĪĺê°Ģ": 6067,
      "Ġenough": 6068,
      "Ġëĭ¤ë¥´": 6069,
      "rance": 6070,
      "Ġconcentrations": 6071,
      "Ġinterv": 6072,
      "Ġê½": 6073,
      "Ġlaun": 6074,
      "âĢĿ": 6075,
      "Ġplans": 6076,
      "Ġê³µê°ľ": 6077,
      "Ġthings": 6078,
      "Ġê¸°ì¤Ģìľ¼ë¡ľ": 6079,
      "Ġdone": 6080,
      "ìĭľíĤ¤ê³ł": 6081,
      "AT": 6082,
      "ĠìĿ¼ë°ĺìłģìľ¼ë¡ľ": 6083,
      "ĠìłĦëł¥": 6084,
      "Ġvia": 6085,
      "ì¿ł": 6086,
      "Ġíķľê³Ħ": 6087,
      "Ġmakes": 6088,
      "Ġvariety": 6089,
      "Ġstarted": 6090,
      "know": 6091,
      "Ġresearc": 6092,
      "ĠëĤ´ìĦ±": 6093,
      "ĠìĿ´ëŁ°": 6094,
      "ĠìĦłìłķ": 6095,
      "êµ¬ê°Ģ": 6096,
      "roph": 6097,
      "Ġgain": 6098,
      "ĠìĿ´ìķ¼": 6099,
      "Ġì¶Ķì²ľ": 6100,
      "aged": 6101,
      "ë¬¼ìĹĲ": 6102,
      "ĠëĮĢì¶ľ": 6103,
      "Ġsatisfaction": 6104,
      "Ġforce": 6105,
      "ĠëĤĺìĺ¤": 6106,
      "Ġelements": 6107,
      "cation": 6108,
      "íķ¨ìĹĲ": 6109,
      "ì´Į": 6110,
      "ĠìĤ¬ìļ©íķľ": 6111,
      "ĩĮ": 6112,
      "ĠìłģìłĪíķľ": 6113,
      "Ġfollowed": 6114,
      "Ġadministrative": 6115,
      "cement": 6116,
      "ë¡Ńê²Į": 6117,
      "Ġêµ¬ëıĻ": 6118,
      "ĠìĬ¤íģ¬": 6119,
      "Ġmole": 6120,
      "Ġì°¸ìĦĿ": 6121,
      "Whe": 6122,
      "Ġsafe": 6123,
      "Ġcamera": 6124,
      "Ġdisposed": 6125,
      "anwhile": 6126,
      "Ġweeks": 6127,
      "Ġlanguage": 6128,
      "ĠíĿĶ": 6129,
      "Ġì¹´ë©ĶëĿ¼": 6130,
      "Ġassist": 6131,
      "ulture": 6132,
      "Meanwhile": 6133,
      "ening": 6134,
      "ĠìłĦë¬¸ê°Ģ": 6135,
      "ĠLe": 6136,
      "ĠRuss": 6137,
      "íķĺëĭ¤ê³ł": 6138,
      "Ġì°¸ê°Ģ": 6139,
      "íķĺìĭł": 6140,
      "Ġíķĺë£¨": 6141,
      "Ġë³´ê´Ģ": 6142,
      "Ġë¯¸ë¦¬": 6143,
      "ê¶ĮìĿĺ": 6144,
      "Ġwebs": 6145,
      "Ġì§Ģì§Ģ": 6146,
      "Ġëĵ±ìľ¼ë¡ľ": 6147,
      "Ġê·ľìłľ": 6148,
      "asks": 6149,
      "ìĭľìŀ¥": 6150,
      "ëĲĺë©´ìĦľ": 6151,
      "Ġadvantage": 6152,
      "Pro": 6153,
      "ĠìĿ¸íĦ°ëĦ·": 6154,
      "Ġë¦¬ìĬ¤íħĮë¦¬ìķĦ": 6155,
      "âĦ": 6156,
      "Ġcame": 6157,
      "Ġcate": 6158,
      "Ġimmediately": 6159,
      "Ġtiss": 6160,
      "ëĺĲëĬĶ": 6161,
      "ì¦Į": 6162,
      "Ġê¸°ëĭ¤": 6163,
      "Ġtell": 6164,
      "Ġíķĺì§Ģ": 6165,
      "Ġìĺ¨ëıĦ": 6166,
      "ĠëĮĢì¡°êµ°": 6167,
      "Ġê³¼íķĻ": 6168,
      "Ġsuggested": 6169,
      "Ġissu": 6170,
      "Ġproperties": 6171,
      "house": 6172,
      "bit": 6173,
      "ĠìķĦëĭĪëĭ¤": 6174,
      "Ġir": 6175,
      "ĠìĺģìĹħ": 6176,
      "mitted": 6177,
      "Ġë³ĢíĻĺ": 6178,
      "32": 6179,
      "Ġrestrict": 6180,
      "íķĺìĹ¬ìķ¼": 6181,
      "bre": 6182,
      "Ġë¶ĢìĹ¬": 6183,
      "Ġmanufacturing": 6184,
      "Ġê²½ìłľìłģ": 6185,
      "Ġeld": 6186,
      "ìĨĮìĿĺ": 6187,
      "book": 6188,
      "Ġcorrel": 6189,
      "Ġmonitor": 6190,
      "Ġstip": 6191,
      "Ġgrown": 6192,
      "ats": 6193,
      "Ġíĺ¸íħĶ": 6194,
      "ĠëĩĮ": 6195,
      "Ġminutes": 6196,
      "Ġgluc": 6197,
      "Ġcrim": 6198,
      "ĠìĬ¤íĥĢ": 6199,
      "ĠâĢľ": 6200,
      "ĠInternet": 6201,
      "Ġgoods": 6202,
      "ë¹Ħë¥¼": 6203,
      "Ġsuitable": 6204,
      "Ġaltern": 6205,
      "ĠìĨĲíķ´": 6206,
      "Ġwhole": 6207,
      "Ġprograms": 6208,
      "heong": 6209,
      "Ġì¡°ìĦ±": 6210,
      "Ġaccum": 6211,
      "Ġworks": 6212,
      "Ġevaluated": 6213,
      "overed": 6214,
      "Ġattempt": 6215,
      "ĠíĸīìĤ¬": 6216,
      "ography": 6217,
      "rm": 6218,
      "ĠìŀĲëıĻì°¨": 6219,
      "Ġë¶Ħëªħ": 6220,
      "Ġanimals": 6221,
      "ĠDong": 6222,
      "Ġefforts": 6223,
      "Ġens": 6224,
      "Ġìļ°ë¦¬ëĤĺëĿ¼": 6225,
      "ĠíĶĮëŀ«íı¼": 6226,
      "ë¥¨": 6227,
      "ĠìĻĢ": 6228,
      "Whether": 6229,
      "Ġìĭľê°ģ": 6230,
      "Ġì¤ĳëĭ¨": 6231,
      "Ġconflic": 6232,
      "pite": 6233,
      "RI": 6234,
      "Ġíĭ°": 6235,
      "Ġprogress": 6236,
      "Ġdiscl": 6237,
      "Ġrepe": 6238,
      "oad": 6239,
      "Ġê°ľìłķ": 6240,
      "Ġ45": 6241,
      "Ġíĺ¹ìĿĢ": 6242,
      "ë§İìĿĢ": 6243,
      "Ġalone": 6244,
      "Ġë°ľìĥĿíķľ": 6245,
      "Ġlib": 6246,
      "ĠìŀĪëĤĺìļĶ": 6247,
      "Ġcorrect": 6248,
      "Ġansw": 6249,
      "Kore": 6250,
      "ĠëĦĵ": 6251,
      "Ġ2010": 6252,
      "Ġê°ķëł¥": 6253,
      "ê±": 6254,
      "Ġvolume": 6255,
      "ĠìŀĲìĦ¸": 6256,
      "Ġformation": 6257,
      "ĠìĿ¸ê³µ": 6258,
      "ites": 6259,
      "Ġê³µê³µ": 6260,
      "34": 6261,
      "ì²´ë¡ľ": 6262,
      "Ġëĭ¹ìĤ¬": 6263,
      "Ġartificial": 6264,
      "Ġë¬´ìĹŃ": 6265,
      "ĠìĹ´ë¦°": 6266,
      "rol": 6267,
      "ĠìķĪëĤ´": 6268,
      "ìĸ´ìĦľ": 6269,
      "Ġforward": 6270,
      "ĠíķĦìĪĺ": 6271,
      "wide": 6272,
      "itation": 6273,
      "imens": 6274,
      "Ġstandards": 6275,
      "Ġì°¸ì¡°": 6276,
      "Ġì¤ĳê°Ħ": 6277,
      "ìĿ¼ë°ĺ": 6278,
      "ë¦¬ì§Ģ": 6279,
      "ëĵ¯": 6280,
      "Ġê¸°íĮĲ": 6281,
      "urrent": 6282,
      "ìŀĪëĬĶ": 6283,
      "hent": 6284,
      "Ġinvolved": 6285,
      "ĠíĽĪ": 6286,
      "ĠìĻĦìłĦíŀĪ": 6287,
      "Accordingly": 6288,
      "ĠìĭľìĤ¬íķľëĭ¤": 6289,
      "Ġsold": 6290,
      "Ġlength": 6291,
      "AS": 6292,
      "ìĽĲìĹĲìĦľ": 6293,
      "Ġì§ĢìĹŃìĿĺ": 6294,
      "ĠëĮĢë¶Ģë¶ĦìĿĺ": 6295,
      "itute": 6296,
      "ĠëĳĲê³ł": 6297,
      "Ġmatch": 6298,
      "Ġstay": 6299,
      "ìĤ¼": 6300,
      "ëĭ¥": 6301,
      "Ġë¬¸ìĿĺ": 6302,
      "ley": 6303,
      "Ġsche": 6304,
      "Ġëĭ¬ìĦ±": 6305,
      "Ġìłľê³µíķľëĭ¤": 6306,
      "ula": 6307,
      "ĠIt": 6308,
      "Ġìĭ¤ì§Ī": 6309,
      "ëĮĢë¥¼": 6310,
      "raz": 6311,
      "íķĺìĺĢê³ł": 6312,
      "ìĭłìĿĢ": 6313,
      "Ġcommand": 6314,
      "Ġconsumers": 6315,
      "Ġang": 6316,
      "ìĥģìĿĢ": 6317,
      "ì³¤": 6318,
      "ëĵľìĿĺ": 6319,
      "ê±°ëŀĺ": 6320,
      "ĠëıĦìĻĢ": 6321,
      "Ġindependent": 6322,
      "ìĬ¨": 6323,
      "Ġpresident": 6324,
      "íķĢ": 6325,
      "Ġsites": 6326,
      "Ġrice": 6327,
      "Ġexport": 6328,
      "Ġfrag": 6329,
      "AP": 6330,
      "erly": 6331,
      "ë²ĶìľĦ": 6332,
      "Ġparts": 6333,
      "Ġusually": 6334,
      "ĠëĮĢìĤ¬": 6335,
      "rid": 6336,
      "ĠëĤĺíĥĢëĤľ": 6337,
      "Ġì´¬ìĺģ": 6338,
      "Ġì²Ńêµ¬": 6339,
      "Ġë°Ķíĥķìľ¼ë¡ľ": 6340,
      "Ġ2014": 6341,
      "rec": 6342,
      "31": 6343,
      "ump": 6344,
      "ë³´ê³ł": 6345,
      "Ġì²´íĹĺ": 6346,
      "ìĸ´ë¥¼": 6347,
      "lex": 6348,
      "Ġcool": 6349,
      "ëĵľë¦´": 6350,
      "ìĪĺíķľ": 6351,
      "âĦĥ": 6352,
      "ìī": 6353,
      "Ġintellig": 6354,
      "ìļ°ìĬ¤": 6355,
      "35": 6356,
      "ĠìĻĶëĭ¤": 6357,
      "Ġbattery": 6358,
      "ĠPC": 6359,
      "Ġplate": 6360,
      "Ġsoil": 6361,
      "aging": 6362,
      "Ġdepend": 6363,
      "Ġê²Ģì¦Ŀ": 6364,
      "Ġdiet": 6365,
      "EO": 6366,
      "ê°Ļ": 6367,
      "augh": 6368,
      "Ġíķ´ìķ¼": 6369,
      "ĠìĪĺíĸīíķł": 6370,
      "ëĲĺìĹĪìĬµëĭĪëĭ¤": 6371,
      "ĠìĿ¸ì¦Ŀ": 6372,
      "Ġship": 6373,
      "Ġë£¨": 6374,
      "Ġisolated": 6375,
      "Ġdeep": 6376,
      "ĠìĨĮíĶĦíĬ¸": 6377,
      "Ġìĺ¤ëĬĺ": 6378,
      "ĠMay": 6379,
      "Ġwall": 6380,
      "Ġsomething": 6381,
      "NS": 6382,
      "While": 6383,
      "Ġprofessional": 6384,
      "·°": 6385,
      "Ġleading": 6386,
      "Through": 6387,
      "Ġíį¼": 6388,
      "Ġì±ĦëĦĲ": 6389,
      "Ġíĺķíĥľë¡ľ": 6390,
      "Ġemergency": 6391,
      "ĠìĪĺëĭ¨": 6392,
      "Ġinterpret": 6393,
      "Ġdepos": 6394,
      "Ġì§ĢëĤĺ": 6395,
      "Ġë¯¸ì¹ĺ": 6396,
      "Ġimprovement": 6397,
      "Ġil": 6398,
      "Ġëĭ¬ëŁ¬": 6399,
      "Ġorganizations": 6400,
      "Ġê²½ìļ°ê°Ģ": 6401,
      "riculum": 6402,
      "Ġespecially": 6403,
      "ĠServ": 6404,
      "ĠíķŃìĥģ": 6405,
      "ĠìĹ°ìĨį": 6406,
      "Ġunf": 6407,
      "Ġimportance": 6408,
      "Ġdance": 6409,
      "ĠìĪĺìłķ": 6410,
      "ëħĦë¶ĢíĦ°": 6411,
      "Ġlargest": 6412,
      "Ġauthent": 6413,
      "rehen": 6414,
      "Based": 6415,
      "uly": 6416,
      "Ġcompound": 6417,
      "ĠìĹĨìĬµëĭĪëĭ¤": 6418,
      "Ġì²ŃìĨĮ": 6419,
      "Ġcomponents": 6420,
      "ĠíĴĢ": 6421,
      "Ġfeature": 6422,
      "ĠìłĦíĻĶ": 6423,
      "Ġê¶ģ": 6424,
      "ĠìĻľ": 6425,
      "Ġìĸ¸ìłľ": 6426,
      "igen": 6427,
      "Ġtalk": 6428,
      "ìĸ¼": 6429,
      "ĠíĻĶíķĻ": 6430,
      "Ġregistration": 6431,
      "Ġbuffer": 6432,
      "Ġê²ĥìĹĲ": 6433,
      "Rec": 6434,
      "Ġìŀ¬ìłķ": 6435,
      "lusion": 6436,
      "Ġì°¨ëŁī": 6437,
      "Ġapproach": 6438,
      "Ġë°Ľìķĺ": 6439,
      "ë¶ĢìĹĲ": 6440,
      "ĠíĮ¨ëĦĲ": 6441,
      "Ġprimary": 6442,
      "Ġpul": 6443,
      "ED": 6444,
      "Ġitem": 6445,
      "Ġvict": 6446,
      "íĦ°ë¥¼": 6447,
      "tical": 6448,
      "yle": 6449,
      "Ġë§ŀì¶": 6450,
      "Ġë³´ì¡°": 6451,
      "si": 6452,
      "Ġì·¨ìĨĮ": 6453,
      "ublic": 6454,
      "Ġteacher": 6455,
      "Ġmodern": 6456,
      "Ġrestaurant": 6457,
      "ì»¨": 6458,
      "ĠCF": 6459,
      "ëĵ¤ëıĦ": 6460,
      "Ġburden": 6461,
      "ulations": 6462,
      "ëł¸ëĭ¤": 6463,
      "Ġchall": 6464,
      "ë¦¿": 6465,
      "Ġìľłë¦¬": 6466,
      "ìĥģìĹĲ": 6467,
      "Ġì§ĢëĤľíķ´": 6468,
      "ë§ĮìĿ´": 6469,
      "Ġì¿": 6470,
      "ĠìĹ¼ìĥī": 6471,
      "Ġadult": 6472,
      "Ġharm": 6473,
      "ìĭľìĦ¤": 6474,
      "ëŀĳìĬ¤": 6475,
      "Ġrent": 6476,
      "Ġsea": 6477,
      "Ġê·¼ë¡ľ": 6478,
      "Ġplants": 6479,
      "ĠPart": 6480,
      "ĠProv": 6481,
      "Ġ140": 6482,
      "Ġcere": 6483,
      "ĠìĦŃì·¨": 6484,
      "Ġë§¥": 6485,
      "Ġcitizens": 6486,
      "êµŃìĿ´": 6487,
      "Ġquickly": 6488,
      "gery": 6489,
      "ìŀĲëĵ¤ìĿĺ": 6490,
      "Ġì£¼íĥĿ": 6491,
      "ocytogenes": 6492,
      "ë²ķìĹĲ": 6493,
      "Ġinterested": 6494,
      "IC": 6495,
      "Ġlate": 6496,
      "Ġconsidering": 6497,
      "MS": 6498,
      "Ġê°Ģì§Ī": 6499,
      "inf": 6500,
      "Ġmessage": 6501,
      "Ġcultures": 6502,
      "Ġíķ©ìĿĺ": 6503,
      "Ġoccurs": 6504,
      "Ġcand": 6505,
      "Ġacad": 6506,
      "Ġìłľê³µíķ©ëĭĪëĭ¤": 6507,
      "Ġexperiments": 6508,
      "atically": 6509,
      "Ġëį°ìĿ´íĦ°ëĬĶ": 6510,
      "ĠíĨµìłľ": 6511,
      "ental": 6512,
      "Ġestablishment": 6513,
      "Ġìłľì¶ľ": 6514,
      "Ġcook": 6515,
      "ìĹĦ": 6516,
      "Ġìµľìłģ": 6517,
      "ë¶Ħíķ´": 6518,
      "ĠTh": 6519,
      "Ġë°ľíļ¨": 6520,
      "Ġê¸°ê³Ħ": 6521,
      "Ġfilter": 6522,
      "Ġinoc": 6523,
      "Ġë¯": 6524,
      "ì§Ģë¡ľ": 6525,
      "ĠìķĦìĦ¸": 6526,
      "Ġì°¨ìĿ´ë¥¼": 6527,
      "Ġsupplement": 6528,
      "rary": 6529,
      "Ġoffer": 6530,
      "MP": 6531,
      "Ġbecomes": 6532,
      "Can": 6533,
      "Ġmicrob": 6534,
      "inate": 6535,
      "Ġdollars": 6536,
      "Ġpoll": 6537,
      "Ġcry": 6538,
      "yn": 6539,
      "Ġê°Ģìĥģ": 6540,
      "ĠìķĮìķĦ": 6541,
      "Ġhit": 6542,
      "Ġëª¨ëĭĪ": 6543,
      "ìĦ¸ê³Ħ": 6544,
      "Ġë°©ë²ķìĿĢ": 6545,
      "íĬ¼": 6546,
      "ĠMarch": 6547,
      "ĠAT": 6548,
      "Ġapart": 6549,
      "bo": 6550,
      "Ġcurriculum": 6551,
      "ëľ": 6552,
      "ociation": 6553,
      "Ġilleg": 6554,
      "íĬ¸ìĿĺ": 6555,
      "Ġwebsite": 6556,
      "ìĿ´ë¡ľ": 6557,
      "íķĺìĭ¤": 6558,
      "abilities": 6559,
      "Ġdefin": 6560,
      "Ġë¿Ĳ": 6561,
      "Ġsection": 6562,
      "Ġcivil": 6563,
      "Ġbinding": 6564,
      "Ġmil": 6565,
      "íķĺëĭ¤ëĬĶ": 6566,
      "ĠìŀĳìĦ±": 6567,
      "uge": 6568,
      "Ġíķľëĭ¤ê³ł": 6569,
      "Ġunits": 6570,
      "ĠìķĬìĬµëĭĪëĭ¤": 6571,
      "estern": 6572,
      "Ġëª¨íĺķ": 6573,
      "Ġfeatures": 6574,
      "ĠìĦłíĺ¸": 6575,
      "ĠíĶĦë¡ľìĦ¸": 6576,
      "Ġmembrane": 6577,
      "Ġindividuals": 6578,
      "ì¹¼": 6579,
      "íļĮìĤ¬": 6580,
      "ĠíĻľëıĻìĿĦ": 6581,
      "ĠìĨĮìŀ¬": 6582,
      "ĠëĤĺìĺ¨": 6583,
      "Ġpoor": 6584,
      "col": 6585,
      "Ġcore": 6586,
      "ìľ¨ìĿĦ": 6587,
      "Ġê³łìļ©": 6588,
      "Ġswit": 6589,
      "Ġclasses": 6590,
      "Ġinj": 6591,
      "ĠìłľëıĦ": 6592,
      "Ġê±´ì¡°": 6593,
      "ìĿ´ëŁ°": 6594,
      "Ġep": 6595,
      "Ġregional": 6596,
      "Ġliver": 6597,
      "ĠìĤ½": 6598,
      "Ġìŀ¥ì¹ĺëĬĶ": 6599,
      "Ġexcell": 6600,
      "Ġelderly": 6601,
      "ìĿ¼ë¶ĢíĦ°": 6602,
      "ĠìłĦíĸĪëĭ¤": 6603,
      "Ġsoftware": 6604,
      "ĠíĿĲë¦Ħ": 6605,
      "ĠìĽĲìĿ¸": 6606,
      "Ġë°ľë³ĳ": 6607,
      "Ġproposed": 6608,
      "ĠëĨįìĹħ": 6609,
      "Ġcapacity": 6610,
      "Ġdetails": 6611,
      "ĠTe": 6612,
      "Ġboard": 6613,
      "Also": 6614,
      "...": 6615,
      "ush": 6616,
      "Ġmetal": 6617,
      "aces": 6618,
      "Ġbir": 6619,
      "ĠíĺķìĦ±ëĲł": 6620,
      "Ġê¸Ģë¡ľë²Į": 6621,
      "ë°ĸìĹĲ": 6622,
      "ĠëĮĢë¡ľ": 6623,
      "abel": 6624,
      "ì²ĺë¦¬": 6625,
      "ĠëĤ¨ìķĦ": 6626,
      "ëĦ¬": 6627,
      "Ġproceed": 6628,
      "Ġê°ģê°ģìĿĺ": 6629,
      "Ġassets": 6630,
      "My": 6631,
      "Ġattrib": 6632,
      "Ġì±": 6633,
      "Ġpun": 6634,
      "ĠíĻĶíķ©": 6635,
      "Ġmatter": 6636,
      "Ġtit": 6637,
      "Ġê°ĴìĿĦ": 6638,
      "ëĭ¤ë§Į": 6639,
      "ìĿ¸ëį°": 6640,
      "Ġì§ķ": 6641,
      "Ġ32": 6642,
      "Ġê°Ģê¹Į": 6643,
      "Ġfixed": 6644,
      "Ġrob": 6645,
      "ê°ĲìĹ¼": 6646,
      "resh": 6647,
      "ĠìłĦìĭľ": 6648,
      "Ġadvert": 6649,
      "ìĪĺìĹĲ": 6650,
      "íĨ¤": 6651,
      "ĠìĿ½": 6652,
      "Ġaffected": 6653,
      "ëĭĪìķĦ": 6654,
      "ĠìĦ¤ëªħíĸĪëĭ¤": 6655,
      "Ġíķ´ëĭ¹íķĺëĬĶ": 6656,
      "Ġcriminal": 6657,
      "Ġcomponent": 6658,
      "ìŀ¥ì¹ĺ": 6659,
      "Ġ2012": 6660,
      "ìĥģìľ¼ë¡ľ": 6661,
      "Ġtw": 6662,
      "Ġattract": 6663,
      "ĠíĪ¬ìĹ¬": 6664,
      "Ġserious": 6665,
      "urer": 6666,
      "rehens": 6667,
      "Ġìĥģëĭ¹íķľ": 6668,
      "íĨłê²Į": 6669,
      "Ġmulti": 6670,
      "Ġmanager": 6671,
      "Ġê°ľìµľ": 6672,
      "back": 6673,
      "encies": 6674,
      "ĠìķŀìĦľ": 6675,
      "Ġê°ĸê³ł": 6676,
      "Ġdiss": 6677,
      "ĠëıħìĿ¼": 6678,
      "íĩ´": 6679,
      "ĠëĮĢìĭł": 6680,
      "Ġopportunity": 6681,
      "ĠìĭľìĬ¤íħľìĿĦ": 6682,
      "Ġmg": 6683,
      "mm": 6684,
      "Ġexercise": 6685,
      "Ġdesigned": 6686,
      "Ġauton": 6687,
      "ĠìĿĺíķĺìĹ¬": 6688,
      "Ġbelong": 6689,
      "íĻĶìĿĺ": 6690,
      "Ġëĸł": 6691,
      "ĠëĶĶìŀĲìĿ¸": 6692,
      "Ġmaximum": 6693,
      "Ġíķ©ìĦ±": 6694,
      "bol": 6695,
      "Ġpolice": 6696,
      "Ġfile": 6697,
      "Ľ°": 6698,
      "ìłľìĸ´": 6699,
      "holders": 6700,
      "Ġorganic": 6701,
      "ĠíķŃê³µ": 6702,
      "êµŃëĤ´": 6703,
      "CD": 6704,
      "ì£¼ìĦ¸ìļĶ": 6705,
      "Ġíķĺê¸°": 6706,
      "Ġagricultural": 6707,
      "Ġì§ĢëıĦ": 6708,
      "ĠëĵľëŁ¬": 6709,
      "iated": 6710,
      "ë©´ìĹĲ": 6711,
      "Ġparamet": 6712,
      "ìĺ¥": 6713,
      "Ġtrial": 6714,
      "Ġê°ľì²´": 6715,
      "ĠëŁ¬ìĭľìķĦ": 6716,
      "Ġ2013": 6717,
      "ulf": 6718,
      "ë°ĶìĿ¼": 6719,
      "Ġì¼ĢìĿ´": 6720,
      "oding": 6721,
      "ban": 6722,
      "Ġschools": 6723,
      "ë¦¬ìĻĢ": 6724,
      "ĠPar": 6725,
      "Ġ2008": 6726,
      "Ġregulation": 6727,
      "FA": 6728,
      "rade": 6729,
      "Ġê´Ģìĭ¬ìĿĦ": 6730,
      "įìĬ¤íĬ¸": 6731,
      "spec": 6732,
      "Ġbon": 6733,
      "ëĮĢìĹĲ": 6734,
      "Ġthank": 6735,
      "Ġsex": 6736,
      "Ġrapidly": 6737,
      "isition": 6738,
      "Ġnever": 6739,
      "Ġmeasurement": 6740,
      "ĠìľłìĿĺíķľ": 6741,
      "Ġrecommended": 6742,
      "Ġtransaction": 6743,
      "ĠíĶĦë¡ľìĦ¸ìĦľ": 6744,
      "ë¹Ī": 6745,
      "Ġphone": 6746,
      "Ġtests": 6747,
      "Ġstation": 6748,
      "Ġallows": 6749,
      "Ġcombination": 6750,
      "Ġpark": 6751,
      "rence": 6752,
      "Ġcapt": 6753,
      "Ġcamp": 6754,
      "Ġdry": 6755,
      "ìĬĪ": 6756,
      "Ġcompletely": 6757,
      "ah": 6758,
      "Ġ36": 6759,
      "Ġê´Ģìĭ¬ìĿ´": 6760,
      "45": 6761,
      "Ġì§Ģë¶Ī": 6762,
      "ìĪĺë¡ľ": 6763,
      "ĠìĤ°ì¶ľ": 6764,
      "ì¡°íķ©": 6765,
      "Ġë°©íĸ¥ìľ¼ë¡ľ": 6766,
      "mar": 6767,
      "ĠSchool": 6768,
      "Ġassay": 6769,
      "Ġcompensation": 6770,
      "Ġë³´ìķĪ": 6771,
      "íĨµìĭł": 6772,
      "ëĭĪì¦ĺ": 6773,
      "ë²ķìĿ´": 6774,
      "ĠEng": 6775,
      "Ġapprox": 6776,
      "uary": 6777,
      "ĠHospital": 6778,
      "Ġë°ľìĥĿíķł": 6779,
      "ĠíĻĺìŀĲê°Ģ": 6780,
      "Ġexamined": 6781,
      "Ġrequirements": 6782,
      "Ġenzyme": 6783,
      "Ġscope": 6784,
      "Ġì¸µ": 6785,
      "Ġsuccessful": 6786,
      "kay": 6787,
      "Ġyoung": 6788,
      "ìĶ©": 6789,
      "ella": 6790,
      "ê´ĢìĿĢ": 6791,
      "Ġë¶Ħë¦¬ì£¼": 6792,
      "Ġpredicted": 6793,
      "ë¶ĦìĿĺ": 6794,
      "Ġbreak": 6795,
      "Ad": 6796,
      "Ġìĭłì¢ħ": 6797,
      "Ġplanning": 6798,
      "Ġgovernments": 6799,
      "Ġì²´ê²°": 6800,
      "Ġê¸°ìĪłìĿĦ": 6801,
      "met": 6802,
      "ĠìĦ±ëĬ¥": 6803,
      "Ġë°ĶëŀĮì§ģ": 6804,
      "ë¤Ħ": 6805,
      "Ġhotel": 6806,
      "íĻĶíķĺëĬĶ": 6807,
      "Ġampl": 6808,
      "Ġembodiments": 6809,
      "ìłķì±ħ": 6810,
      "Ġê°ĢëĬ¥íķ©ëĭĪëĭ¤": 6811,
      "Ġê°ĢëĬ¥ìĦ±ìĿĦ": 6812,
      "erve": 6813,
      "Ġê¸ĪìĨį": 6814,
      "ê³łë¥¼": 6815,
      "Ġgenerally": 6816,
      "Ġê·ĢíķĺìĿĺ": 6817,
      "Ġë³´ìĹ¬ì£¼ìĹĪëĭ¤": 6818,
      "Ġëĵľë¦¬": 6819,
      "ìĿ¼ë¶Ģ": 6820,
      "Ġacross": 6821,
      "ëĵľë¡ľ": 6822,
      "Ġstatist": 6823,
      "ĠAssociation": 6824,
      "Ġcooper": 6825,
      "ĠìĿ¸ì§Ģ": 6826,
      "ĠFe": 6827,
      "ëĵľê°Ģ": 6828,
      "ĠëĮĢìĿĳíķĺëĬĶ": 6829,
      "ê¸°ê°Ħ": 6830,
      "Ġdefect": 6831,
      "Ġdesignated": 6832,
      "Ġìľµ": 6833,
      "ĠìĹ°êµ¬ìĹĲ": 6834,
      "ëĭĪìĬ¤": 6835,
      "ĠSc": 6836,
      "Ġì¡°ìĦ¸": 6837,
      "ĠíĮĲê²°": 6838,
      "Ġcert": 6839,
      "Ġê°ĻìĬµëĭĪëĭ¤": 6840,
      "Ġmedic": 6841,
      "ë©¸": 6842,
      "self": 6843,
      "ìĸ´ëĤľ": 6844,
      "Ġwireless": 6845,
      "Ġcontains": 6846,
      "ĠìľĦíķ´ìĦľ": 6847,
      "ëĵ±íķĻêµĲ": 6848,
      "Ġcounter": 6849,
      "ĠInternational": 6850,
      "Ġjo": 6851,
      "ĠìŀĲë¦¬": 6852,
      "Ġnumbers": 6853,
      "Ġferment": 6854,
      "ìĥĿíĻľ": 6855,
      "ĠìĤ¬ìļ©ëĲĺëĬĶ": 6856,
      "Ġseries": 6857,
      "Ġhar": 6858,
      "ĠëĲĺê³ł": 6859,
      "íķĺëł¤ê³ł": 6860,
      "Ġìłķëĭ¹": 6861,
      "ìĿ¼ê¹Įì§Ģ": 6862,
      "Ġter": 6863,
      "ĠHan": 6864,
      "Ġstaff": 6865,
      "ĠIg": 6866,
      "Ġdecl": 6867,
      "Ġvalid": 6868,
      "Ġê¸Īì§Ģ": 6869,
      "Ġmort": 6870,
      "Ġinject": 6871,
      "ĠìĽĲìĭ¬": 6872,
      "íľĺ": 6873,
      "Ġfib": 6874,
      "ĠíķŃëª©": 6875,
      "Ġmentioned": 6876,
      "Ġexceed": 6877,
      "ìĦľë¹ĦìĬ¤": 6878,
      "Ġíķĺë©´": 6879,
      "Ġemployment": 6880,
      "ĠìĤ¬ëŀĮëĵ¤ìĿ´": 6881,
      "ĠìĦ¸íı¬ìĿĺ": 6882,
      "ĠCho": 6883,
      "Ġindustries": 6884,
      "ì§Ģë°©": 6885,
      "ĠPr": 6886,
      "ìĨĮê°Ģ": 6887,
      "Ġ2009": 6888,
      "Ġthick": 6889,
      "Ġcontrast": 6890,
      "íĴĪìĿĦ": 6891,
      "ĠìĦ¤ë¦½": 6892,
      "Ġbott": 6893,
      "ened": 6894,
      "utive": 6895,
      "Ġace": 6896,
      "ĠìĨĮíĶĦíĬ¸ìĽ¨ìĸ´": 6897,
      "ë¶Ģê°Ģ": 6898,
      "Ġdiscount": 6899,
      "Ġì£½": 6900,
      "Ġgrowing": 6901,
      "ĠìĿ¼ìľ¼": 6902,
      "Ġ2011": 6903,
      "ĠëıĪ": 6904,
      "ĠìĦ¸íı¬ë¥¼": 6905,
      "ĠìĤ°íĻĶ": 6906,
      "ĠAd": 6907,
      "etermin": 6908,
      "ĠëĿ¼ìĿ´": 6909,
      "oung": 6910,
      "ĠìķĶíĺ¸": 6911,
      "Ġglucose": 6912,
      "ê·¸ëŁ°ëį°": 6913,
      "ë´ĩ": 6914,
      "ĠìĻĦë£Į": 6915,
      "ìĬ¤íı¬": 6916,
      "ìĸ´ìķ¼": 6917,
      "ĠìĹ°ëł¹": 6918,
      "íı´": 6919,
      "overy": 6920,
      "ĠìĿ´ëĵ¤": 6921,
      "Ġresulting": 6922,
      "Ġraised": 6923,
      "Ġë¬¼ë¡ł": 6924,
      "ivation": 6925,
      "Ġindicated": 6926,
      "ĠíĿ¥": 6927,
      "Ġê³¼ìĦ¸": 6928,
      "Ġclassified": 6929,
      "Ġrefers": 6930,
      "ologies": 6931,
      "Ġcarry": 6932,
      "ĠìĶ¨": 6933,
      "ansion": 6934,
      "Ġê²ª": 6935,
      "Ġbroadcast": 6936,
      "ĠíķĻë¶Ģëª¨": 6937,
      "Ġadapt": 6938,
      "HO": 6939,
      "cin": 6940,
      "Ġphenomen": 6941,
      "dule": 6942,
      "Ġnegot": 6943,
      "Ġì°¨ëĭ¨": 6944,
      "ĠOff": 6945,
      "Ġri": 6946,
      "ĠìŀĲê·¹": 6947,
      "Ġíĳ¸": 6948,
      "ìĭľë©´": 6949,
      "ĠëıĦì¶ľ": 6950,
      "Ġëħ¼ë¬¸": 6951,
      "ì°¬ê°Ģì§Ģ": 6952,
      "íĤ¤íĨłê²Į": 6953,
      "ĠJan": 6954,
      "rates": 6955,
      "Ġcontinued": 6956,
      "ëıĦìĿ´ëĭ¤": 6957,
      "ĠìľłìłĦìŀĲìĿĺ": 6958,
      "Ġì¶ľìĭľ": 6959,
      "Ġì§Ģíĳľ": 6960,
      "Ġë¶ĢìĤ°": 6961,
      "Ġfourth": 6962,
      "Ġtask": 6963,
      "Ġdetailed": 6964,
      "Ġdut": 6965,
      "ë¬¼ë¡ł": 6966,
      "ìĬ¤íĥĢ": 6967,
      "ĠII": 6968,
      "Ġexcellent": 6969,
      "íĬ¸ëĬĶ": 6970,
      "íĭĢ": 6971,
      "ëĭ¤ìĸĳ": 6972,
      "Ġaware": 6973,
      "ëĲ¨": 6974,
      "na": 6975,
      "Ġì¡´ìŀ¬íķĺëĬĶ": 6976,
      "Ġë°©ë²ķìľ¼ë¡ľ": 6977,
      "Ġsor": 6978,
      "urities": 6979,
      "Ġdil": 6980,
      "Ġmodels": 6981,
      "inally": 6982,
      "Ġslow": 6983,
      "íĽ": 6984,
      "ĠGang": 6985,
      "agram": 6986,
      "Ġbit": 6987,
      "Ġtend": 6988,
      "ë²łìĿ´ìĬ¤": 6989,
      "Ġinstalled": 6990,
      "ĠMan": 6991,
      "mp": 6992,
      "Ġsan": 6993,
      "Ġanalyze": 6994,
      "íŀĮ": 6995,
      "Ġìĺ¤íĽĦ": 6996,
      "ĠìĤ¬ìłĦ": 6997,
      "Ġë³´ëıĦ": 6998,
      "ĠíĬ¸ëŀľ": 6999,
      "ìĬ¤íħĮ": 7000,
      "ë¡łìĿĦ": 7001,
      "Ġcomfort": 7002,
      "Ġplaced": 7003,
      "Ġëª¨ëħ¸íĤ¤íĨłê²Į": 7004,
      "Ġappears": 7005,
      "ĠíļĮìĤ¬ìĿĺ": 7006,
      "ĠìĪĺì¤ĢìĿĺ": 7007,
      "Ġcandid": 7008,
      "ĠëĽ°": 7009,
      "ifying": 7010,
      "sych": 7011,
      "íķĻìĬµ": 7012,
      "Ġìļ°ë¦¬ìĿĺ": 7013,
      "Ġge": 7014,
      "Ġë°©ìĨ¡": 7015,
      "ĠêµĲê³¼": 7016,
      "Ġê±´ìĦ¤": 7017,
      "Ġguide": 7018,
      "Ġchannel": 7019,
      "ìłķìĿ´": 7020,
      "Ġê·¸ëłĩ": 7021,
      "Ġtub": 7022,
      "ĠCommission": 7023,
      "ingu": 7024,
      "irect": 7025,
      "ĠìľłëĭĽ": 7026,
      "Ġdirector": 7027,
      "ĠíĶĦëłĪìŀĦ": 7028,
      "Ġì¡°ìĦł": 7029,
      "Ġì¢ħíķ©": 7030,
      "Ġë°ĺìĿĳìĿĦ": 7031,
      "ë¶ĦìĿĦ": 7032,
      "ëłī": 7033,
      "Ġì±Ħê¶Į": 7034,
      "Ġband": 7035,
      "Ġheart": 7036,
      "IV": 7037,
      "33": 7038,
      "Ġì¸¡ë©´ìĹĲìĦľ": 7039,
      "Ġways": 7040,
      "íĺ¹": 7041,
      "ĠST": 7042,
      "Ġ197": 7043,
      "BC": 7044,
      "ĠìĦ¸ì²Ļ": 7045,
      "Ġë³µìŀ¡": 7046,
      "ĠMed": 7047,
      "Ġvisited": 7048,
      "Most": 7049,
      "Ġì»¬": 7050,
      "Ġagency": 7051,
      "ĠInst": 7052,
      "Ġsurgery": 7053,
      "omb": 7054,
      "light": 7055,
      "Ġë¬´ìĦł": 7056,
      "Ġbeaut": 7057,
      "Ġprepare": 7058,
      "ĠìłģìĿĳ": 7059,
      "Ġë³´ì¡´": 7060,
      "Ġscore": 7061,
      "Ġìłľìĸ´ë¶Ģ": 7062,
      "iconduct": 7063,
      "íľ´": 7064,
      "ze": 7065,
      "ĠíļĮìłĦ": 7066,
      "Ġconstruct": 7067,
      "ĠCommittee": 7068,
      "anged": 7069,
      "ë¦¬ê·¸": 7070,
      "Ġì´Īëŀĺ": 7071,
      "lus": 7072,
      "Ġrise": 7073,
      "Ġmiss": 7074,
      "Ġded": 7075,
      "Ġadministration": 7076,
      "Ġago": 7077,
      "Ġacquisition": 7078,
      "Ġë¹łë¥´ê²Į": 7079,
      "ĠìĨĮìĨ¡": 7080,
      "ĠìłĦêµŃ": 7081,
      "Ġopened": 7082,
      "odies": 7083,
      "ëł¤ê³ł": 7084,
      "Ġcircum": 7085,
      "ìĹ¬ê¸°ìĦľ": 7086,
      "ply": 7087,
      "Ġalthough": 7088,
      "ĠìľłìĹĶ": 7089,
      "Ġpromote": 7090,
      "Ġimages": 7091,
      "Ġmachine": 7092,
      "vis": 7093,
      "Ġresponsibility": 7094,
      "Ġload": 7095,
      "eful": 7096,
      "Ġê°Ħì£¼": 7097,
      "ìĿ´ìĿĺ": 7098,
      "ik": 7099,
      "ì°®": 7100,
      "Let": 7101,
      "ìĺ¤ëĬĺ": 7102,
      "ĠOr": 7103,
      "AC": 7104,
      "Ġíĸ¥íĽĦ": 7105,
      "ĠëĤĺëĿ¼": 7106,
      "Ġcorrelation": 7107,
      "ĠìĿ´ìłľ": 7108,
      "ĠìĤ½ìŀħ": 7109,
      "ĠíĨµê³¼": 7110,
      "Ġcode": 7111,
      "Ġstim": 7112,
      "ĠìĽĮ": 7113,
      "Ġíĺģìĭł": 7114,
      "ë¹Ħìļ©": 7115,
      "Ġreducing": 7116,
      "Ġdraw": 7117,
      "ìĻĶ": 7118,
      "Ġexcess": 7119,
      "cember": 7120,
      "28": 7121,
      "ë¨¸ì§Ģ": 7122,
      "ĠìľĦë°ĺ": 7123,
      "ĠìķĦë¯¸ëħ¸": 7124,
      "Ġdomain": 7125,
      "Ġchrom": 7126,
      "Ġresol": 7127,
      "ë§ĪìĿĦ": 7128,
      "Ġquarant": 7129,
      "Ġgate": 7130,
      "Ġbio": 7131,
      "ĠìĭľëıĦ": 7132,
      "Ġì§ģìĽĲ": 7133,
      "Ġgly": 7134,
      "ĠCT": 7135,
      "Ġcrime": 7136,
      "Ġìļ°ë¦¬ê°Ģ": 7137,
      "Ġschedule": 7138,
      "ìĿ¼ë³¸": 7139,
      "Ġì·¨ëĵĿ": 7140,
      "ĠìĬµ": 7141,
      "yo": 7142,
      "olitan": 7143,
      "ĠìĿ¼ìĿ´": 7144,
      "ìĿ´ìĹĲìļĶ": 7145,
      "Ġkin": 7146,
      "Ġexpansion": 7147,
      "Ġë¶ĪìķĪ": 7148,
      "ìĽĥ": 7149,
      "ĠìĦ¤ëªħíķľ": 7150,
      "Ġheav": 7151,
      "Ġì¤ĳìĹĲ": 7152,
      "ìĿ¸ê³¼": 7153,
      "Ġdocument": 7154,
      "aek": 7155,
      "gi": 7156,
      "Ġë¶Ģë¬¸": 7157,
      "Ġec": 7158,
      "Ġefficient": 7159,
      "Ġstarting": 7160,
      "Ġerror": 7161,
      "Ġfields": 7162,
      "Ġë§Įëĵł": 7163,
      "inant": 7164,
      "iring": 7165,
      "Ġperspective": 7166,
      "pril": 7167,
      "More": 7168,
      "lies": 7169,
      "Ġremaining": 7170,
      "Ġconfigured": 7171,
      "Ġprojects": 7172,
      "ê·¸ë¦¼": 7173,
      "ìĿ´íĽĦ": 7174,
      "itative": 7175,
      "ëĤĺë¬´": 7176,
      "ëĵľë¦¬ê²łìĬµëĭĪëĭ¤": 7177,
      "Ġoperated": 7178,
      "Ġì¹ĺë£Įë¥¼": 7179,
      "ges": 7180,
      "Ġofficials": 7181,
      "ëĬĶëĭ¤": 7182,
      "Ġalmost": 7183,
      "Ġfast": 7184,
      "Ġê²°ê³¼ê°Ģ": 7185,
      "Ġbox": 7186,
      "Ġtempor": 7187,
      "íĪ¬ìŀĲ": 7188,
      "Ġserum": 7189,
      "uting": 7190,
      "Ġstudent": 7191,
      "ĠìĤ¬ìļ©ëĲľ": 7192,
      "DNA": 7193,
      "Ġì§ĢìĹ°": 7194,
      "ëĥ¥": 7195,
      "Ġbud": 7196,
      "Ġreli": 7197,
      "During": 7198,
      "Ġexecution": 7199,
      "140": 7200,
      "Ġsho": 7201,
      "Ġë°©ìĤ¬": 7202,
      "ë¥´ê³ł": 7203,
      "Ġê³µê²©": 7204,
      "ëŁ¬ìļ´": 7205,
      "ĠJung": 7206,
      "ëĿ¼ìļ°": 7207,
      "ĠëªħìĿĺ": 7208,
      "Ġë¹łë¥¸": 7209,
      "Ġpercept": 7210,
      "ë§¹": 7211,
      "íķĺìĺĢìľ¼ë©°": 7212,
      "ĠíķľêµŃìĿĺ": 7213,
      "uel": 7214,
      "ĠíļĮìĽĲ": 7215,
      "Ġsemiconduct": 7216,
      "Ġë¯¿": 7217,
      "ĠìĹŃìĤ¬": 7218,
      "ĠAn": 7219,
      "Ġìĸ¼ë§ĪëĤĺ": 7220,
      "Ġbusinesses": 7221,
      "Ġìķ¼ìĥĿ": 7222,
      "ĠìĻĶ": 7223,
      "ference": 7224,
      "Ġlove": 7225,
      "ĠìĿ´ìľłë¡ľ": 7226,
      "Ġë²Ķì£Ħ": 7227,
      "ĠëĬĲëĤ": 7228,
      "ìĿ´ìłĦ": 7229,
      "Ġìŀ¬ë£Į": 7230,
      "Ġparties": 7231,
      "Ġlonger": 7232,
      "ê²łìĸ´ìļĶ": 7233,
      "ë°į": 7234,
      "ĠIndust": 7235,
      "ì»¤ëĭĪì¦ĺ": 7236,
      "Ġcontext": 7237,
      "ĠìĤ¬ìļ©ìŀĲê°Ģ": 7238,
      "ë¥łìĿĦ": 7239,
      "ĠìĥĺíĶĮìĿĦ": 7240,
      "Ġlip": 7241,
      "27": 7242,
      "ĠìĹ°ìŀ¥": 7243,
      "Ġintegrated": 7244,
      "ropolitan": 7245,
      "Ġclearly": 7246,
      "ĠDecember": 7247,
      "ĠConst": 7248,
      "nel": 7249,
      "ĠìĻĦìłĦ": 7250,
      "ì²´ìĻĢ": 7251,
      "Ġsensing": 7252,
      "ux": 7253,
      "Ġcritic": 7254,
      "ëĦ¬ëĿ¼": 7255,
      "ĠìĺĪë¥¼": 7256,
      "ches": 7257,
      "ata": 7258,
      "Ġfine": 7259,
      "Ġmeat": 7260,
      "Ġìľłìļ©": 7261,
      "Ġstrength": 7262,
      "Ġfresh": 7263,
      "ĠëŃĲ": 7264,
      "Ġchemical": 7265,
      "ĠìĿ´ìļ©íķľ": 7266,
      "ĠìŀĲìĭł": 7267,
      "rig": 7268,
      "Ġdischar": 7269,
      "Ġden": 7270,
      "Ġì£¼ìĦ¸ìļĶ": 7271,
      "arters": 7272,
      "Ġconstant": 7273,
      "aves": 7274,
      "Ġë©Ģ": 7275,
      "Ġcomprehens": 7276,
      "ìĤ°ìĿ´": 7277,
      "Ġexpenses": 7278,
      "reted": 7279,
      "Ġêµ°ì§ĳ": 7280,
      "Ġbackground": 7281,
      "Ġë°°ê²½": 7282,
      "road": 7283,
      "ĠApril": 7284,
      "Ab": 7285,
      "Ġnation": 7286,
      "Ġê³¼ê±°": 7287,
      "ĠíĻķìĿ¸ëĲĺìĹĪëĭ¤": 7288,
      "Ġê±¸ì³Ĳ": 7289,
      "ĠPh": 7290,
      "ĠSK": 7291,
      "Ġdiscussion": 7292,
      "Ġsequences": 7293,
      "ords": 7294,
      "Ġëª»íķľ": 7295,
      "ëĭ¤ê°Ģ": 7296,
      "Ġfing": 7297,
      "ĠLG": 7298,
      "Ġtherapy": 7299,
      "ëĮĢê°Ģ": 7300,
      "ê²¼": 7301,
      "ìłĲìĿĢ": 7302,
      "íĻĶëĬĶ": 7303,
      "Ġintelligence": 7304,
      "ĠìĺģêµŃ": 7305,
      "Ġstates": 7306,
      "Ġnovel": 7307,
      "Ġì§ĢìĨįìłģìľ¼ë¡ľ": 7308,
      "Ġdiagram": 7309,
      "Ġë³´íĨµ": 7310,
      "Ġë³Ģíĺķ": 7311,
      "ê³¤": 7312,
      "gl": 7313,
      "ìłģìĿĦ": 7314,
      "phone": 7315,
      "Ġindicating": 7316,
      "ĠíĽĦë³´": 7317,
      "ĠìĤ¬ëŀĮìĿ´": 7318,
      "Ġsufficient": 7319,
      "Ġê³µìĭĿ": 7320,
      "Ġbound": 7321,
      "ìĸ´ì§Ħ": 7322,
      "Ġìłķë³´ëĬĶ": 7323,
      "Ġ2020": 7324,
      "ĠìĻĦì¶©": 7325,
      "Ġë¹ĦíĮĲ": 7326,
      "íĻľìĦ±": 7327,
      "Ġce": 7328,
      "han": 7329,
      "Ġtherm": 7330,
      "Ġcauses": 7331,
      "Ġpatterns": 7332,
      "ë§ĪìĿ´": 7333,
      "Ġcoron": 7334,
      "Ġsecure": 7335,
      "ĠíĴįë¶Ģ": 7336,
      "Ġappeal": 7337,
      "ĠJune": 7338,
      "Ġexperts": 7339,
      "ĠìĥģíĻ©ìĹĲìĦľ": 7340,
      "ĠAAAëĬĶ": 7341,
      "orb": 7342,
      "Ġpie": 7343,
      "erous": 7344,
      "Ġ210": 7345,
      "Ġë¶Ģìŀ¬": 7346,
      "medi": 7347,
      "Ġìĸ´ëł¤ìļ´": 7348,
      "Ġfed": 7349,
      "Ġë©Ķì»¤ëĭĪì¦ĺ": 7350,
      "ĠmM": 7351,
      "êµ¬ì¡°": 7352,
      "Ġì£¼ëĬĶ": 7353,
      "400": 7354,
      "Cons": 7355,
      "ĠAsian": 7356,
      "ë§ĪíĨł": 7357,
      "ĠíĨłìĸĳ": 7358,
      "Ġinfluen": 7359,
      "uck": 7360,
      "arter": 7361,
      "ëıĦì²´": 7362,
      "ruit": 7363,
      "ëª»": 7364,
      "ìĿ´ì§Ģë§Į": 7365,
      "Ġë§ĪìĿĮ": 7366,
      "empl": 7367,
      "Ġê°ģì¢ħ": 7368,
      "ë¶ģíķľ": 7369,
      "ĠProvince": 7370,
      "Ġassum": 7371,
      "Ġexhibition": 7372,
      "ìĿ¼íķľ": 7373,
      "Ġintra": 7374,
      "Ġíĳľë³¸": 7375,
      "ĠAsia": 7376,
      "unding": 7377,
      "ober": 7378,
      "ë¥ĺë¥¼": 7379,
      "ĠëĤĻ": 7380,
      "avirus": 7381,
      "ĠìĿ´íĸī": 7382,
      "Ġmom": 7383,
      "Ġmaintained": 7384,
      "Ġthus": 7385,
      "Ġìĺ¤ëĬĶ": 7386,
      "ìĽł": 7387,
      "ĠìĿ´ëĤ´": 7388,
      "ĠCP": 7389,
      "break": 7390,
      "ĠíĮĲëĭ¨ëĲľëĭ¤": 7391,
      "ìĬ·": 7392,
      "Ġdidn": 7393,
      "ĠIT": 7394,
      "Ġmorning": 7395,
      "Ġhem": 7396,
      "Ġê·¸ëŁ°": 7397,
      "equ": 7398,
      "ĠJanuary": 7399,
      "Ġgot": 7400,
      "Ġperforming": 7401,
      "Ġfirm": 7402,
      "ĠìĺĪìłķìĿ´ëĭ¤": 7403,
      "Ġë¶Ģì°©": 7404,
      "ĠìĦłíĸī": 7405,
      "Ġarm": 7406,
      "íĬ¸ìĹĲ": 7407,
      "Ġì¤ĳìĿ¸": 7408,
      "Ġë§ĪìĿ´íģ¬": 7409,
      "Ġinqu": 7410,
      "AD": 7411,
      "íĳ¸": 7412,
      "Ġoverl": 7413,
      "pers": 7414,
      "ìĦľìĹĲ": 7415,
      "Ġíİ¼": 7416,
      "Ġfair": 7417,
      "ĠìĽĲíķĺëĬĶ": 7418,
      "ìĤ¬ìĭ¤": 7419,
      "occ": 7420,
      "Ġdiagnosis": 7421,
      "Ġsurvival": 7422,
      "ĠBe": 7423,
      "Ġspect": 7424,
      "Ġsqu": 7425,
      "Ġcontam": 7426,
      "Ġallowed": 7427,
      "ľì°®": 7428,
      "dom": 7429,
      "Ġmi": 7430,
      "Ġinfections": 7431,
      "Ġtransferred": 7432,
      "ĠíķŃìĥĿ": 7433,
      "ĠìĿ¸ëıĦ": 7434,
      "Ġìŀ¥ìĨĮ": 7435,
      "ĠíķĺìľĦ": 7436,
      "Ġblack": 7437,
      "Ġtaste": 7438,
      "PCR": 7439,
      "Ġtakes": 7440,
      "ìĹĪëįĺ": 7441,
      "Ġcriteria": 7442,
      "Ġì¤ĳìĹĲìĦľ": 7443,
      "Ġconsumer": 7444,
      "Ġdetermining": 7445,
      "íķĺëł¤ëĬĶ": 7446,
      "Ġwhite": 7447,
      "Ġdrink": 7448,
      "Ġ<": 7449,
      "Ġdoing": 7450,
      "ìłĲìĹĲ": 7451,
      "Ġapplying": 7452,
      "Ġlines": 7453,
      "ĠFinancial": 7454,
      "Ġreached": 7455,
      "Ġmind": 7456,
      "Ġë°©ìķĪ": 7457,
      "ĠëıĦì°©": 7458,
      "Ġloan": 7459,
      "Ġasked": 7460,
      "Ġmilk": 7461,
      "Ġìĥģíĺ¸ìŀĳìļ©": 7462,
      "Ġearlier": 7463,
      "SP": 7464,
      "Ġderived": 7465,
      "ĠSu": 7466,
      "Ġremoved": 7467,
      "Ġfacility": 7468,
      "Ġfloor": 7469,
      "ĠìĦľë¸Į": 7470,
      "ĠìłĢíķŃ": 7471,
      "Ġhumans": 7472,
      "Ġcoli": 7473,
      "onal": 7474,
      "Ġnucle": 7475,
      "ero": 7476,
      "Ġë°ĿíĺĢ": 7477,
      "obacter": 7478,
      "ĠëıĮìķĦ": 7479,
      "ìĸ´ëĸ¤": 7480,
      "Ġdouble": 7481,
      "Ġhealthy": 7482,
      "ÃĹ": 7483,
      "Ġë¶Ģê³¼": 7484,
      "ĠìĥĿì²´": 7485,
      "ĠíĶĦëĿ¼ìĿ´": 7486,
      "íķĻëħĦ": 7487,
      "Ġball": 7488,
      "ìĬ¤ìĹĲ": 7489,
      "ĠëĤ´ìĿĺ": 7490,
      "Ġwid": 7491,
      "Ġê´ĳë²ĶìľĦ": 7492,
      "Ġíķĺë©°": 7493,
      "Ġpsych": 7494,
      "Ġconsideration": 7495,
      "ducation": 7496,
      "ĠìĥģìĹĲ": 7497,
      "ĠìĸĳìĿĺ": 7498,
      "Ġlif": 7499,
      "ĠAf": 7500,
      "ë§Įíģ¼": 7501,
      "ĠAAAìĿĺ": 7502,
      "ì§ĢìĻĢ": 7503,
      "Ġantibiot": 7504,
      "ipped": 7505,
      "ĠJuly": 7506,
      "ìĿ´ëĵ¤": 7507,
      "Ġhowever": 7508,
      "Ġë¸Įëŀľëĵľ": 7509,
      "razil": 7510,
      "Ġtransportation": 7511,
      "Ġì¹¼": 7512,
      "hemat": 7513,
      "Ġnight": 7514,
      "Ġscale": 7515,
      "Ġìĺ®": 7516,
      "ĠíĻĺìŀĲëĬĶ": 7517,
      "Ġsale": 7518,
      "Ġdatab": 7519,
      "ìłģìĿ´ëĭ¤": 7520,
      "Ġresponsible": 7521,
      "ì¼ĵ": 7522,
      "ê³łê°Ŀ": 7523,
      "Ġsmo": 7524,
      "Ġpointed": 7525,
      "Ġìłķë¶ĢìĿĺ": 7526,
      "Ġì¤ĳìļĶíķĺëĭ¤": 7527,
      "Ġround": 7528,
      "Ġì¶Ķê°Ģë¡ľ": 7529,
      "yung": 7530,
      "Ġì§Ģë°°": 7531,
      "Ġforest": 7532,
      "Ġslight": 7533,
      "hel": 7534,
      "Ġattached": 7535,
      "Ġmutant": 7536,
      "Ġpict": 7537,
      "Ġreasons": 7538,
      "Ġï¬ģ": 7539,
      "ëªĩ": 7540,
      "Ġê±°ì£¼": 7541,
      "Ġëª¨ëĭĪíĦ°ë§ģ": 7542,
      "Ġgames": 7543,
      "Ġdiab": 7544,
      "Ġpublished": 7545,
      "Ġsou": 7546,
      "ĠPre": 7547,
      "Ġwelfare": 7548,
      "osy": 7549,
      "Ġtransmitted": 7550,
      "ìĿ¸ìĹĲ": 7551,
      "Ġbanks": 7552,
      "ĠAl": 7553,
      "Ġconcerns": 7554,
      "Ġsecondary": 7555,
      "Ġìĥģíĥľë¥¼": 7556,
      "Ġê³µíĨµ": 7557,
      "yang": 7558,
      "Ġpractical": 7559,
      "ĠíĮĮëĿ¼": 7560,
      "ê´Ħ": 7561,
      "ĠCoun": 7562,
      "Ġìĸ»ìĿĢ": 7563,
      "Ġappeared": 7564,
      "eneral": 7565,
      "Ġsir": 7566,
      "ĠëĦĺìĸ´": 7567,
      "Ġexposure": 7568,
      "ê±¸": 7569,
      "ĠìłķëıĦë¡ľ": 7570,
      "Ġdivision": 7571,
      "bu": 7572,
      "ĠìĿ¼ë°ĺìłģìĿ¸": 7573,
      "ithm": 7574,
      "ĠìĹ°ê³Ħ": 7575,
      "Ġìµľì´Ī": 7576,
      "Ġrequires": 7577,
      "ê¸ĪìĿ´": 7578,
      "êµŃê°Ģ": 7579,
      "Ġë°°íĦ°": 7580,
      "cont": 7581,
      "Ġi": 7582,
      "ìĭĿìĿ´": 7583,
      "ê³łê°Ģ": 7584,
      "neg": 7585,
      "ĠìŀĲë£Įë¥¼": 7586,
      "ories": 7587,
      "ded": 7588,
      "lim": 7589,
      "Ġapproximately": 7590,
      "Ġì¶©ìłĦ": 7591,
      "Ġuseful": 7592,
      "ĠìļĶê±´": 7593,
      "ëĩ¨ë³ĳ": 7594,
      "ĠìĿ´ë¤Ħ": 7595,
      "Ĺĭ": 7596,
      "Ġìľłëªħ": 7597,
      "Ġsecret": 7598,
      "ìĻķ": 7599,
      "ĠìĺģìĹŃìĿĦ": 7600,
      "ëŁŃ": 7601,
      "Ġ180": 7602,
      "ato": 7603,
      "Ġgraph": 7604,
      "ĠìĦ¬ìľł": 7605,
      "ĠìĬ¤ìľĦ": 7606,
      "ĠìĥĿìĦ±ëĲľ": 7607,
      "ëĵľìĭľ": 7608,
      "Ġflex": 7609,
      "Ġten": 7610,
      "Ġdisposition": 7611,
      "ĠíĽĪëł¨": 7612,
      "36": 7613,
      "EU": 7614,
      "ë¥łìĿĢ": 7615,
      "Ġë¹ĦêµĲíķĺìĹ¬": 7616,
      "ĠìĤ¬ìĭ¤ìĿĦ": 7617,
      "ĠìĿ´ëłĩê²Į": 7618,
      "ptember": 7619,
      "210": 7620,
      "omic": 7621,
      "Ġnorth": 7622,
      "ëĭ¤ìĸĳíķľ": 7623,
      "ĠìŀĲê°Ģ": 7624,
      "ĠíĶĦë¡ľê·¸ëŀ¨ìĿĦ": 7625,
      "Ġing": 7626,
      "Ġrules": 7627,
      "Ġìłķë¶ĢëĬĶ": 7628,
      "Ġconsult": 7629,
      "Ġë¯¸ìĪł": 7630,
      "Ġìĥģëĭ¹íŀĪ": 7631,
      "Ġwent": 7632,
      "Ġêµ¬ë¹Ħ": 7633,
      "GA": 7634,
      "Ġrecorded": 7635,
      "Ġupd": 7636,
      "Ġdemonstrated": 7637,
      "Ġ34": 7638,
      "Ġdiscussed": 7639,
      "150": 7640,
      "more": 7641,
      "Ġexamine": 7642,
      "ë¦¬ì¦ĺ": 7643,
      "Ġêµ¬ì¡°ë¥¼": 7644,
      "Ġoccup": 7645,
      "Ġthinking": 7646,
      "Ġtherefore": 7647,
      "ëĵľìĹĲ": 7648,
      "Ġdistributed": 7649,
      "Ġdivers": 7650,
      "ìĿĺìĿĺ": 7651,
      "Ġìĺ¥": 7652,
      "Ġìłķë¶Ģê°Ģ": 7653,
      "Ġê¸°ìĸµ": 7654,
      "Ġinteraction": 7655,
      "Ġincubated": 7656,
      "Ġparticipants": 7657,
      "Ġmixed": 7658,
      "Ġrelevant": 7659,
      "Ġë§Īì°¬ê°Ģì§Ģ": 7660,
      "Ġëľ»": 7661,
      "pa": 7662,
      "Ġë°°ì§ĢìĹĲìĦľ": 7663,
      "ë¬¼ì§Ī": 7664,
      "Ġì¡°ì¹ĺ": 7665,
      "Ġê°Ħíĺ¸": 7666,
      "Ġíı¬ëıĦ": 7667,
      "29": 7668,
      "Ġqual": 7669,
      "Ġweak": 7670,
      "Ġíı¬íķ¨ëĲĺìĸ´": 7671,
      "ìŀ¥ê³¼": 7672,
      "Ġadop": 7673,
      "Ġë³´ìĿ´ëĬĶ": 7674,
      "Ġë¹ĦìĬ·": 7675,
      "ĠDaegu": 7676,
      "Ġë¯¸ìĦ¸": 7677,
      "Ġêµ¬ìŀħ": 7678,
      "mosp": 7679,
      "Ġbring": 7680,
      "head": 7681,
      "Ġvolun": 7682,
      "Ġword": 7683,
      "ĠìĪĻì£¼": 7684,
      "Ġcompl": 7685,
      "Ġë²Ĺ": 7686,
      "Ġelection": 7687,
      "ĠGermany": 7688,
      "Ġbelieve": 7689,
      "Ġfailure": 7690,
      "Ġpreced": 7691,
      "Ġillustrating": 7692,
      "Ġlost": 7693,
      "AB": 7694,
      "CS": 7695,
      "Ġì¡°ê¸Ī": 7696,
      "Ġoutbreak": 7697,
      "Ġìĺ¤ëŀĺ": 7698,
      "Ġjudged": 7699,
      "ĠOct": 7700,
      "uled": 7701,
      "Ar": 7702,
      "ĠìŀĲì£¼": 7703,
      "Ġstocks": 7704,
      "âĢĵ": 7705,
      "Ġinnovation": 7706,
      "ĠíĿ¬ìĦĿ": 7707,
      "Ġanimal": 7708,
      "ìķ¡ìĿĺ": 7709,
      "Ġprovision": 7710,
      "Ġauthority": 7711,
      "Ġexamination": 7712,
      "ì¢ħìĿĺ": 7713,
      "ë£°": 7714,
      "Ġmoving": 7715,
      "Ġaccident": 7716,
      "Ġclus": 7717,
      "Ġê¸°ì¡´ìĿĺ": 7718,
      "Ġìĭ¬ê°ģíķľ": 7719,
      "ê°ĳ": 7720,
      "Ġveget": 7721,
      "Ġcold": 7722,
      "ĠíĶĮëĿ¼ìĬ¤ë¯¸ëĵľ": 7723,
      "Ġìķ±": 7724,
      "Ġchanging": 7725,
      "Ġassociation": 7726,
      "Ġloans": 7727,
      "ĠìĨĲìĥģ": 7728,
      "ìĿ¼ìĿ´": 7729,
      "Ġê·łì£¼ìĿĺ": 7730,
      "Ġabsence": 7731,
      "useum": 7732,
      "Ġbudget": 7733,
      "Ġë²ķìłģ": 7734,
      "ĠìķĪë³´": 7735,
      "nal": 7736,
      "Ġëĵľë¦½ëĭĪëĭ¤": 7737,
      "Ġìĭłìļ©": 7738,
      "íĶĮë£¨": 7739,
      "Ġìĸ´ëĸł": 7740,
      "ĠSeptember": 7741,
      "Ġ2007": 7742,
      "ĠíŀĪ": 7743,
      "Ġì¢ħë¥ĺìĿĺ": 7744,
      "Ġap": 7745,
      "ĠíĺĦëĮĢ": 7746,
      "otyp": 7747,
      "Ġdepartment": 7748,
      "Ġholding": 7749,
      "sible": 7750,
      "Ġì¶©ë¶ĦíŀĪ": 7751,
      "vent": 7752,
      "ĠìĤ¬íĥľ": 7753,
      "Î¼": 7754,
      "Ġfit": 7755,
      "ìľ¨ìĿĢ": 7756,
      "Ġë³ĢíĻĶê°Ģ": 7757,
      "ĠëħĦ": 7758,
      "Ġminimum": 7759,
      "ocr": 7760,
      "ë³´ê±´": 7761,
      "ĠChung": 7762,
      "ordance": 7763,
      "Ġ250": 7764,
      "Ġê¿": 7765,
      "rupt": 7766,
      "ians": 7767,
      "Ġsemiconductor": 7768,
      "ê·¸ê²ĥìĿĢ": 7769,
      "Ġstores": 7770,
      "Ġsyn": 7771,
      "ìĭ¸": 7772,
      "miss": 7773,
      "Ġìŀ¬ìĥĿ": 7774,
      "Ġì¦ĿíıŃ": 7775,
      "ĠëıĦìłĦ": 7776,
      "Ġê³łìľł": 7777,
      "ĠìłĦìĤ¬": 7778,
      "Ġstability": 7779,
      "ì²´ìĿ¸": 7780,
      "ĠìĿ´ëģ": 7781,
      "ĠJose": 7782,
      "Further": 7783,
      "ME": 7784,
      "ë·°": 7785,
      "Ġë¹¨ë¦¬": 7786,
      "Ġìĸ´ëĶĶ": 7787,
      "Ġìłķë¦¬": 7788,
      "Ġsurro": 7789,
      "ìłķíķľ": 7790,
      "ler": 7791,
      "Ġthroughout": 7792,
      "Ġcomparison": 7793,
      "ulin": 7794,
      "ĠíĶĦë¡ľìłĿíĬ¸": 7795,
      "Ġagent": 7796,
      "Ġfire": 7797,
      "earch": 7798,
      "Ġtrip": 7799,
      "ĠìĬ¤íĬ¸ëłĪìĬ¤": 7800,
      "Ġwarm": 7801,
      "ìĽ¨": 7802,
      "ëª°": 7803,
      "Ġë°ĺëĮĢ": 7804,
      "Ġscience": 7805,
      "ĠëĴ·": 7806,
      "ì½Ķë¡ľëĤĺ": 7807,
      "Ġinstead": 7808,
      "ĠAP": 7809,
      "ëªħìľ¼ë¡ľ": 7810,
      "Ġê²ĢìĤ¬ë¥¼": 7811,
      "ĠParty": 7812,
      "ìĿ´ë¸Ķ": 7813,
      "ĠìĬ¤íħĮ": 7814,
      "Ġprint": 7815,
      "Ġhistor": 7816,
      "ĠMuseum": 7817,
      "IP": 7818,
      "ĠìĥĿíĥľ": 7819,
      "ë¥´ê¸°": 7820,
      "Ġ65": 7821,
      "LP": 7822,
      "ĠíĥĦìĨĮ": 7823,
      "Ġë¿Ĳë§Į": 7824,
      "Ġpropos": 7825,
      "ë¬´ë¥¼": 7826,
      "Ġtrue": 7827,
      "Ġopinion": 7828,
      "Ġëĵ±ìŀ¥": 7829,
      "Ġatmosp": 7830,
      "\".": 7831,
      "Ġì¶Ķìłģ": 7832,
      "Ġpix": 7833,
      "Ġstable": 7834,
      "ìĺ¤ìĬ¤": 7835,
      "ĠëĬ¥ëł¥ìĿĦ": 7836,
      "Ġcombined": 7837,
      "Ġinterests": 7838,
      "otype": 7839,
      "Ġguidel": 7840,
      "ĠMet": 7841,
      "Ġuses": 7842,
      "Ġëª¨ë°ĶìĿ¼": 7843,
      "AR": 7844,
      "Ġfemale": 7845,
      "ĠëĤĺëĪĦ": 7846,
      "Ġexposed": 7847,
      "Ġì§ĳëĿ½": 7848,
      "ĠëĳĺëŁ¬": 7849,
      "ëĨĵ": 7850,
      "ĠKB": 7851,
      "ë¦¬ë¡ľ": 7852,
      "oh": 7853,
      "Ġguarantee": 7854,
      "Ġcyt": 7855,
      "Ġingred": 7856,
      "ģëĭĪëĭ¤": 7857,
      "Ġë¶Īê°ĢëĬ¥": 7858,
      "Ġamino": 7859,
      "ulates": 7860,
      "Ġrule": 7861,
      "Ġê°ĳ": 7862,
      "ancing": 7863,
      "Ġê²½ì°°": 7864,
      "ìķĮê²łìĬµëĭĪëĭ¤": 7865,
      "urrently": 7866,
      "Ġë§Īì§Ģë§ī": 7867,
      "ìħĺìĿĦ": 7868,
      "Ġdivid": 7869,
      "ĠOctober": 7870,
      "Ġ33": 7871,
      "ë¬¸ìĿĦ": 7872,
      "ĠGroup": 7873,
      "Ġë¯¸ì¹ł": 7874,
      "Ġchoice": 7875,
      "Ġê¸įìłķìłģìĿ¸": 7876,
      "Ġinterpretation": 7877,
      "Ġbeginning": 7878,
      "ê¸°ìĹĲìĦľ": 7879,
      "ĠService": 7880,
      "ĠìĪĺì¤ĢìĿĦ": 7881,
      "ĠIsland": 7882,
      "ĠOffice": 7883,
      "íĻĶìĻĢ": 7884,
      "anol": 7885,
      "Ġê¸°ì§Ī": 7886,
      "ĠAS": 7887,
      "Ġemphasized": 7888,
      "±ìłķ": 7889,
      "ìĪĺìĻĢ": 7890,
      "iles": 7891,
      "Ġexact": 7892,
      "Ġresolution": 7893,
      "Ġcharacteristic": 7894,
      "Ġinstruction": 7895,
      "Ġêµ¬ë³Ħ": 7896,
      "Ġë¯¸ë§Į": 7897,
      "ìĬ¤íĨł": 7898,
      "Ġwalk": 7899,
      "Ġprocedures": 7900,
      "hood": 7901,
      "ĠìķĦìĭľìķĦ": 7902,
      "active": 7903,
      "Ġscen": 7904,
      "ëıĦìĭľ": 7905,
      "Ġdisapp": 7906,
      "ĠìłľíĴĪìĿĺ": 7907,
      "Ġattack": 7908,
      "ľë¸Į": 7909,
      "Ġensure": 7910,
      "Ġfully": 7911,
      "buk": 7912,
      "Ġê°ĻìķĦìļĶ": 7913,
      "Ġdy": 7914,
      "Ġcontained": 7915,
      "Ġsuff": 7916,
      "ĠêµĲíĨµ": 7917,
      "Ġëį°ìĿ´íĦ°ë²łìĿ´ìĬ¤": 7918,
      "Ġweb": 7919,
      "Ġfoods": 7920,
      "Ġordered": 7921,
      "Ġdrugs": 7922,
      "ê³¼ëĬĶ": 7923,
      "ĠìŀĲì²´": 7924,
      "IS": 7925,
      "ĠìłķíĻķíķľ": 7926,
      "negative": 7927,
      "Ġimplementation": 7928,
      "ocol": 7929,
      "Ġconfiguration": 7930,
      "ê¶ģ": 7931,
      "ìłķìĹĲ": 7932,
      "Ġfavor": 7933,
      "Ġë°©ì¶ľ": 7934,
      "Ġconsistent": 7935,
      "ĠCont": 7936,
      "ĠìĦ¸ë¶Ģ": 7937,
      "Ġacids": 7938,
      "Ġíľ´ëĮĢ": 7939,
      "Ġcolumn": 7940,
      "etermined": 7941,
      "Ġvisual": 7942,
      "Ġë¯¸ëĶĶìĸ´": 7943,
      "Ġë³µìłľ": 7944,
      "Ġprovisions": 7945,
      "Table": 7946,
      "Ġcapable": 7947,
      "ira": 7948,
      "Ġeight": 7949,
      "º¼": 7950,
      "êµ¬ëĬĶ": 7951,
      "aries": 7952,
      "ustain": 7953,
      "ĠEducation": 7954,
      "ĠìĤ¬ìļ©íķĺìĺĢëĭ¤": 7955,
      "Ġëĭ¨íİ¸": 7956,
      "Ġequal": 7957,
      "Ġidea": 7958,
      "ëª¨ëĦ¬ëĿ¼": 7959,
      "ĠGu": 7960,
      "Ġê±°ìķ¼": 7961,
      "Ġhypot": 7962,
      "DM": 7963,
      "ëħĦê°Ħ": 7964,
      "Ġtissue": 7965,
      "Ġsolid": 7966,
      "Ġreports": 7967,
      "ë¶Ļ": 7968,
      "ê´ĢìĿĦ": 7969,
      "ĠìķĪìĹĲ": 7970,
      "Ġcolle": 7971,
      "rif": 7972,
      "itivity": 7973,
      "ìľ¤": 7974,
      "ĠVillage": 7975,
      "Ġoperate": 7976,
      "íķĺê¸°ëıĦ": 7977,
      "Ġë¶Ļ": 7978,
      "ĠEast": 7979,
      "Ġì¡°ê±´ìĹĲìĦľ": 7980,
      "Ġmac": 7981,
      "ĠìĥģìĿ´": 7982,
      "ĠíĺķíĥľìĿĺ": 7983,
      "aro": 7984,
      "ĠíķĺëĿ½": 7985,
      "ĠëķĮê¹Įì§Ģ": 7986,
      "ran": 7987,
      "ĠíĻľìĦ±ìĿĦ": 7988,
      "ners": 7989,
      "Ġë§ĪìĬ¤íģ¬": 7990,
      "Ġchoose": 7991,
      "ê·¸ëĵ¤ìĿĢ": 7992,
      "Ġìĸ´ëłµëĭ¤": 7993,
      "Ġconstit": 7994,
      "ĠSal": 7995,
      "Ġì¡°ìŀĳ": 7996,
      "Ġëª¨ëį¸ìĿĦ": 7997,
      "ĠëĨĴëĭ¤": 7998,
      "Ġreform": 7999,
      "scale": 8000,
      "Ġhor": 8001,
      "ë¬¼ë¡ľ": 8002,
      "ĠComp": 8003,
      "Ġalternative": 8004,
      "ifically": 8005,
      "ops": 8006,
      "ĠíĶĦë¦¬": 8007,
      "Ġëĭ¤ë£¨": 8008,
      "Ġìŀ¬ìĤ°": 8009,
      "Ġì£¼ìħĶìĦľ": 8010,
      "ë°ķíĦ°": 8011,
      "odes": 8012,
      "Ġì¶©ì¡±": 8013,
      "pling": 8014,
      "ĠRe": 8015,
      "Ġê·¸ëĮĢë¡ľ": 8016,
      "Ġê³µê¸°": 8017,
      "Ġìłķìĭł": 8018,
      "ĠìĪĺíķĻ": 8019,
      "icity": 8020,
      "lying": 8021,
      "Ġë²¡": 8022,
      "ìŀĸ": 8023,
      "ĠìĹĨìĿĦ": 8024,
      "Ġsolve": 8025,
      "Ġìķŀìľ¼ë¡ľ": 8026,
      "ĠìĹĨìĸ´": 8027,
      "ĠëıĦë¡ľ": 8028,
      "Ġê²¨": 8029,
      "Ġê³§": 8030,
      "Ġê´ĢìĹ¬": 8031,
      "Ġëª¨ìĸĳ": 8032,
      "ĠìŀħìĽĲ": 8033,
      "ĠìķĦëıĻ": 8034,
      "Ġmap": 8035,
      "Ġìłķë³´ê°Ģ": 8036,
      "Ġì´Īê³¼": 8037,
      "ĠAmerican": 8038,
      "Ġinvestors": 8039,
      "quarters": 8040,
      "ìĹĺ": 8041,
      "Due": 8042,
      "ì°¨ë¥¼": 8043,
      "ĠìľĦì¹ĺíķľ": 8044,
      "ìĭľìĬ¤íħľ": 8045,
      "Ġindicate": 8046,
      "íķĺëĤĺ": 8047,
      "Ġìĥģê´Ģê´Ģê³Ħ": 8048,
      "íķ´ì£¼": 8049,
      "ì¡°ìĤ¬": 8050,
      "íĬ¸ê°Ģ": 8051,
      "ĠíħįìĬ¤íĬ¸": 8052,
      "Ġbed": 8053,
      "Ġtourists": 8054,
      "Ġintroduction": 8055,
      "ìŀĲì¹ĺ": 8056,
      "ëħĦê¹Įì§Ģ": 8057,
      "ommod": 8058,
      "forcement": 8059,
      "ĠëıĦëĭ¬": 8060,
      "ĠëĨĢ": 8061,
      "Ġëª©ìłģìľ¼ë¡ľ": 8062,
      "Ġê·łì£¼ëĬĶ": 8063,
      "êµ°ìĿĺ": 8064,
      "Ġmechanism": 8065,
      "andom": 8066,
      "Ġê°ĲìĹ¼ëĲľ": 8067,
      "ĠìĿ´ìľłëĬĶ": 8068,
      "aches": 8069,
      "Ġillegal": 8070,
      "Ġì§Ģì¹¨": 8071,
      "êµ¬ê·ł": 8072,
      "ìĬ¤ëŁ½": 8073,
      "ĠìĤ¬ìļ©ëĲł": 8074,
      "ê³ĦìĿĺ": 8075,
      "Res": 8076,
      "DS": 8077,
      "Ġ220": 8078,
      "rier": 8079,
      "Ġì§ĢìĹŃìĹĲìĦľ": 8080,
      "cm": 8081,
      "Ġskills": 8082,
      "Ġfinger": 8083,
      "ë²ķìĥģ": 8084,
      "ĠíĺĦì§Ģ": 8085,
      "Ġpow": 8086,
      "ĠíĺĦìŀ¥": 8087,
      "ester": 8088,
      "Ġseven": 8089,
      "Ġdatabase": 8090,
      "Ġidentification": 8091,
      "LC": 8092,
      "ief": 8093,
      "Ġclosed": 8094,
      "Ġraw": 8095,
      "ìĦľìļ¸": 8096,
      "Ġplaces": 8097,
      "Ġforms": 8098,
      "Ġpeak": 8099,
      "Ġêµ¬ìĦ±ëĲľ": 8100,
      "ëĤ©": 8101,
      "íĸĪëĭ¤ëĬĶ": 8102,
      "Ġì§ĳíĸī": 8103,
      "Ġsouth": 8104,
      "Ġpit": 8105,
      "Ġaccordance": 8106,
      "Ġê³łê°Ŀëĭĺ": 8107,
      "Ġauthentication": 8108,
      "formation": 8109,
      "Ġwriting": 8110,
      "new": 8111,
      "ëĲĺëıĦë¡Ŀ": 8112,
      "ĠInstitute": 8113,
      "etes": 8114,
      "Ġì§§": 8115,
      "arb": 8116,
      "Ġìłķìłľ": 8117,
      "ĠìľłíĨµ": 8118,
      "agraph": 8119,
      "amsung": 8120,
      "point": 8121,
      "Ġended": 8122,
      "Ġë°°ìļ°": 8123,
      "ĠìĦ±ìŀ¥ìĿĦ": 8124,
      "Ġwindow": 8125,
      "Ġstain": 8126,
      "ĠìĿĺìĭ¬": 8127,
      "Ġê·¸ëŁ¬": 8128,
      "Ġë°Ķê": 8129,
      "Ġë¶Ģíĥģëĵľë¦½ëĭĪëĭ¤": 8130,
      "ray": 8131,
      "Ġê¾¸": 8132,
      "ê¶ĮìĿ´": 8133,
      "Ġë¯¼ì£¼": 8134,
      "Ġtechnologies": 8135,
      "Ġfee": 8136,
      "ëĮĢìĥģ": 8137,
      "ìŀĪëĭ¤": 8138,
      "ĠìĥģíĻ©ìĿĦ": 8139,
      "37": 8140,
      "Ġsched": 8141,
      "Ġnewly": 8142,
      "ëŀĻ": 8143,
      "Ġíĳľì§Ģ": 8144,
      "ìĿ¼ìĿĺ": 8145,
      "Ġextracted": 8146,
      "Ġsubsid": 8147,
      "ĠìĬ¤ìĬ¤ë¡ľ": 8148,
      "ĠìĿ´íķĺ": 8149,
      "íļĮë¥¼": 8150,
      "ĠìĭĿëŁī": 8151,
      "Ġrelease": 8152,
      "ishment": 8153,
      "'.": 8154,
      "Ġtum": 8155,
      "ĠìŀĲìĽĲ": 8156,
      "ĠJoseon": 8157,
      "Ġë¶ĦìĦĿíķĺìĺĢëĭ¤": 8158,
      "Ġlact": 8159,
      "Ġglass": 8160,
      "ĠëĤĺëĬĶ": 8161,
      "ĠìŀĲìĤ°": 8162,
      "ĠìŀĲëħĢ": 8163,
      "gg": 8164,
      "ĠCEO": 8165,
      "Ġexplan": 8166,
      "Ġshareholders": 8167,
      "ney": 8168,
      "oman": 8169,
      "Ġquarantine": 8170,
      "ĠìĹĨëĭ¤ëĬĶ": 8171,
      "umin": 8172,
      "Reg": 8173,
      "ĠìłľëĮĢë¡ľ": 8174,
      "ateral": 8175,
      "Ġê²°ê³¼ìĹĲ": 8176,
      "ì½©": 8177,
      "Ġpassed": 8178,
      "Ġcycle": 8179,
      "Ġìī¬": 8180,
      "ĠìķĦë¬´": 8181,
      "ì¼ĢíĮħ": 8182,
      "Ġìĩ¼": 8183,
      "ê°ľë¥¼": 8184,
      "Ġreach": 8185,
      "asty": 8186,
      "Ġpredetermined": 8187,
      "Us": 8188,
      "Ġìĸ¸ìĸ´": 8189,
      "ê¸°ì¤Ģ": 8190,
      "Ġê´Ģê³ĦìŀĲëĬĶ": 8191,
      "Ġtried": 8192,
      "íıīê°Ģ": 8193,
      "ëĲĺê±°ëĤĺ": 8194,
      "ĠëĿ¼ìĿ¸": 8195,
      "ĠìĻ¸êµĲ": 8196,
      "sang": 8197,
      "Ġê±°ë¦¬": 8198,
      "ëĿ¼ìļ´": 8199,
      "Ġê´Ģê´ĳê°Ŀ": 8200,
      "Ġenterpr": 8201,
      "Ġ600": 8202,
      "Ġê´ĳê³ł": 8203,
      "Ġelementary": 8204,
      "ë§ŀ": 8205,
      "ľíĥĿ": 8206,
      "Ġinterview": 8207,
      "Ġdisput": 8208,
      "Ġì¤ĳìĨĮ": 8209,
      "CP": 8210,
      "Ġsources": 8211,
      "Ġaccommod": 8212,
      "ëłĪìĺ¤": 8213,
      "oma": 8214,
      "Ġlarger": 8215,
      "ĠìľłíĺķìĿĺ": 8216,
      "Ġë³´ëĬĶ": 8217,
      "Ġrare": 8218,
      "Ġexpanded": 8219,
      "ë¶ĦìĿ´": 8220,
      "ìħľ": 8221,
      "aker": 8222,
      "Ġíĺ¸íĿ¡": 8223,
      "Ġcra": 8224,
      "Ġfoot": 8225,
      "Ġperfect": 8226,
      "Ġapplications": 8227,
      "ĠKing": 8228,
      "Ġstre": 8229,
      "Ġwhereas": 8230,
      "Ġrecognize": 8231,
      "Ġsorry": 8232,
      "Ġdistin": 8233,
      "Ġmother": 8234,
      "Ġemit": 8235,
      "ëĵ¤ë¡ľ": 8236,
      "Ġtrillion": 8237,
      "ĠíĿ¡ìĪĺ": 8238,
      "ìĦŃ": 8239,
      "Ġê²°ìłķíķł": 8240,
      "Ġseed": 8241,
      "Ġvictim": 8242,
      "ĠìĿ´ë¯¸ì§Ģë¥¼": 8243,
      "icy": 8244,
      "ĠPe": 8245,
      "ì§ĪíĻĺ": 8246,
      "ìĦ¸ê°Ģ": 8247,
      "ìĿĺë£Į": 8248,
      "Ġcoe": 8249,
      "Ġhospitals": 8250,
      "Ġmathemat": 8251,
      "ê·¸ë£¹": 8252,
      "Ġë³´ì¶©": 8253,
      "ĠíĮ¬": 8254,
      "íĽĪ": 8255,
      "Ġì°¨ë³Ħ": 8256,
      "plant": 8257,
      "Ġremains": 8258,
      "ĠìĺĪìĹĲ": 8259,
      "velopment": 8260,
      "ĠRussia": 8261,
      "rical": 8262,
      "Ġrecovery": 8263,
      "Ġcareer": 8264,
      "ì²´ìĹĲìĦľ": 8265,
      "ê´Ģê´ĳ": 8266,
      "ĠìĥĿìĦ±íķł": 8267,
      "off": 8268,
      "ëªħìĿĢ": 8269,
      "Ġë°Ľì§Ģ": 8270,
      "ĠìĤ¬ìĹħìĿĦ": 8271,
      "Ġster": 8272,
      "Ġwaste": 8273,
      "po": 8274,
      "ë¨¼ìłĢ": 8275,
      "íĺķìĿĺ": 8276,
      "ìłĲìľ¼ë¡ľ": 8277,
      "Ġwholes": 8278,
      "Ġmonocytogenes": 8279,
      "Ġu": 8280,
      "IA": 8281,
      "ë¯¸íĦ°": 8282,
      "©íĭ°": 8283,
      "Ġreplace": 8284,
      "ĠìĨĶ": 8285,
      "Ġmanufacturer": 8286,
      "ë³´íĺ¸": 8287,
      "ëł¥ìĿĺ": 8288,
      "Ġsurrounding": 8289,
      "ancy": 8290,
      "ĠAfric": 8291,
      "Ġë°©ë²ķìĹĲ": 8292,
      "Ġadvanced": 8293,
      "êµŃìłľ": 8294,
      "ì¹¸": 8295,
      "Ġë³ĢíĻĶìĹĲ": 8296,
      "pled": 8297,
      "ì¡°ìĿĺ": 8298,
      "Ġseem": 8299,
      "ugust": 8300,
      "ĠêµĲìĤ¬": 8301,
      "cellular": 8302,
      "ê¸°ì¡´": 8303,
      "ìłľìĻĢ": 8304,
      "ape": 8305,
      "ĠìłĦíķ´": 8306,
      "Recently": 8307,
      "Ġmm": 8308,
      "Ġchick": 8309,
      "ìºĲ": 8310,
      "Ġachieved": 8311,
      "Ġ1990": 8312,
      "Ġsummer": 8313,
      "ĠëĮĢì¤ĳ": 8314,
      "Ġìļ¸": 8315,
      "Ġë¯¼ê°Ħ": 8316,
      "Ġì½Ķë¡ľëĤĺë°ĶìĿ´ëŁ¬ìĬ¤": 8317,
      "Ġë§¡": 8318,
      "Ġìĭ¤ìłľë¡ľ": 8319,
      "âĪĴ": 8320,
      "cript": 8321,
      "Ġìĭłê·ľ": 8322,
      "Ġ38": 8323,
      "Ġinsp": 8324,
      "íŀĪëł¤": 8325,
      "Ġcontinuous": 8326,
      "ET": 8327,
      "Ġë°¤": 8328,
      "Ġgap": 8329,
      "Ġchain": 8330,
      "ĠëłĮ": 8331,
      "Ġclub": 8332,
      "Ġë¹Ħì¦Ī": 8333,
      "Ġìŀ¬ë°°": 8334,
      "ìĨĮëĬĶ": 8335,
      "Ġplasmid": 8336,
      "ĠBrazil": 8337,
      "ĠìĿ´ì¤ĳ": 8338,
      "Ġë³´ìĻĦ": 8339,
      "Ġë°ĺëıĦì²´": 8340,
      "ìĭľíĤ¤ê¸°": 8341,
      "ì§ĢëıĦ": 8342,
      "Ġanything": 8343,
      "Ġyield": 8344,
      "Ġheard": 8345,
      "Ġìłķì¹ĺìłģ": 8346,
      "RF": 8347,
      "fere": 8348,
      "Ġëĭ¹ìĭłìĿĺ": 8349,
      "Ġ55": 8350,
      "iction": 8351,
      "ĠFig": 8352,
      "Ġacademic": 8353,
      "Ġê¹¨": 8354,
      "Ġcoord": 8355,
      "oses": 8356,
      "ĠëĤĺë¨¸ì§Ģ": 8357,
      "ìĤ¬ìĿ´": 8358,
      "ĠìĺģìĹŃìĹĲ": 8359,
      "Ġ196": 8360,
      "Ġbul": 8361,
      "ë¥ĺìĿĺ": 8362,
      "Ġhyper": 8363,
      "ĠëıĻìĿĺ": 8364,
      "ĠêµĲíĻĺ": 8365,
      "íĢĢ": 8366,
      "Ġìľ¤": 8367,
      "ĠëĿ½": 8368,
      "Ġê°ķëł¥íķľ": 8369,
      "Ġ75": 8370,
      "Ġmarketing": 8371,
      "Ġtechnique": 8372,
      "Ġpad": 8373,
      "ê°ĢìĬ¤": 8374,
      "ĠGwang": 8375,
      "íĬ¸ë¡¤": 8376,
      "ê¸°êµ¬": 8377,
      "ì¡¸": 8378,
      "Ġë¹ĦêµĲìłģ": 8379,
      "Ġsuggests": 8380,
      "44": 8381,
      "05": 8382,
      "Ġidentity": 8383,
      "Ġscient": 8384,
      "Ġtransactions": 8385,
      "Currently": 8386,
      "ìª½ìľ¼ë¡ľ": 8387,
      "Ġê·¸ìĿĺ": 8388,
      "mM": 8389,
      "used": 8390,
      "Ġthing": 8391,
      "ĠìĥģíĥľìĹĲìĦľ": 8392,
      "Ġê°ĦìĹĲ": 8393,
      "ming": 8394,
      "jeong": 8395,
      "ĠìłĪìĹ°": 8396,
      "ĠìķĦë§Ī": 8397,
      "Ġrank": 8398,
[...]
